{
  "version": "1.0",
  "truncation": null,
  "padding": null,
  "added_tokens": [
    {
      "id": 0,
      "content": "[UNK]",
      "single_word": false,
      "lstrip": false,
      "rstrip": false,
      "normalized": false,
      "special": true
    },
    {
      "id": 1,
      "content": "[CLS]",
      "single_word": false,
      "lstrip": false,
      "rstrip": false,
      "normalized": false,
      "special": true
    },
    {
      "id": 2,
      "content": "[SEP]",
      "single_word": false,
      "lstrip": false,
      "rstrip": false,
      "normalized": false,
      "special": true
    },
    {
      "id": 3,
      "content": "[PAD]",
      "single_word": false,
      "lstrip": false,
      "rstrip": false,
      "normalized": false,
      "special": true
    },
    {
      "id": 4,
      "content": "[MASK]",
      "single_word": false,
      "lstrip": false,
      "rstrip": false,
      "normalized": false,
      "special": true
    }
  ],
  "normalizer": null,
  "pre_tokenizer": {
    "type": "Whitespace"
  },
  "post_processor": null,
  "decoder": null,
  "model": {
    "type": "BPE",
    "dropout": null,
    "unk_token": "[UNK]",
    "continuing_subword_prefix": null,
    "end_of_word_suffix": null,
    "fuse_unk": false,
    "byte_fallback": false,
    "ignore_merges": false,
    "vocab": {
      "[UNK]": 0,
      "[CLS]": 1,
      "[SEP]": 2,
      "[PAD]": 3,
      "[MASK]": 4,
      "!": 5,
      "*": 6,
      ",": 7,
      "-": 8,
      "2": 9,
      "9": 10,
      "a": 11,
      "b": 12,
      "c": 13,
      "g": 14,
      "h": 15,
      "k": 16,
      "n": 17,
      "t": 18,
      "u": 19,
      "à": 20,
      "á": 21,
      "ó": 22,
      "ĩ": 23,
      "ư": 24,
      "ả": 25,
      "ỡ": 26,
      "ꪀ": 27,
      "ꪁ": 28,
      "ꪄ": 29,
      "ꪅ": 30,
      "ꪆ": 31,
      "ꪈ": 32,
      "ꪉ": 33,
      "ꪊ": 34,
      "ꪋ": 35,
      "ꪎ": 36,
      "ꪏ": 37,
      "ꪐ": 38,
      "ꪑ": 39,
      "ꪒ": 40,
      "ꪓ": 41,
      "ꪔ": 42,
      "ꪕ": 43,
      "ꪖ": 44,
      "ꪗ": 45,
      "ꪘ": 46,
      "ꪙ": 47,
      "ꪚ": 48,
      "ꪛ": 49,
      "ꪜ": 50,
      "ꪝ": 51,
      "ꪠ": 52,
      "ꪡ": 53,
      "ꪢ": 54,
      "ꪣ": 55,
      "ꪤ": 56,
      "ꪥ": 57,
      "ꪨ": 58,
      "ꪩ": 59,
      "ꪪ": 60,
      "ꪫ": 61,
      "ꪬ": 62,
      "ꪭ": 63,
      "ꪮ": 64,
      "ꪯ": 65,
      "ꪰ": 66,
      "ꪱ": 67,
      "ꪲ": 68,
      "ꪳ": 69,
      "ꪴ": 70,
      "ꪵ": 71,
      "ꪶ": 72,
      "ꪷ": 73,
      "ꪸ": 74,
      "ꪹ": 75,
      "ꪺ": 76,
      "ꪻ": 77,
      "ꪼ": 78,
      "ꪽ": 79,
      "ꪾ": 80,
      "꪿": 81,
      "꫁": 82,
      "ꫛ": 83,
      "ꫜ": 84,
      "꫟": 85,
      "꫁ꪱ": 86,
      "꪿ꪱ": 87,
      "꪿ꪉ": 88,
      "꫁ꪮ": 89,
      "ꪱꪥ": 90,
      "꪿ꪮ": 91,
      "꪿ꪙ": 92,
      "ꪱꪉ": 93,
      "꫁ꪙ": 94,
      "ꪷ꪿": 95,
      "ꪱꪀ": 96,
      "꫁ꪉ": 97,
      "꪿ꪀ": 98,
      "ꪰꪀ": 99,
      "ꪮꪉ": 100,
      "ꪱꪙ": 101,
      "ꪮꪀ": 102,
      "ꪲꪙ": 103,
      "꫁ꪀ": 104,
      "ꪹꪚ": 105,
      "꪿ꪺ": 106,
      "꫁ꪫ": 107,
      "꫁ꪣ": 108,
      "ꪸꪒ": 109,
      "ꪮꪙ": 110,
      "ꪸꪙ": 111,
      "ꪴ꪿": 112,
      "ꪶꪀ": 113,
      "ꪲꪒ": 114,
      "ꪾ꫁": 115,
      "ꪱꪒ": 116,
      "ꪱ꫁": 117,
      "ꪹꪭ": 118,
      "ꪹꪄ": 119,
      "꪿ꪱꪉ": 120,
      "ꪾꪚ": 121,
      "ꪱꪚ": 122,
      "꫁ꪮꪥ": 123,
      "ꪰꪉ": 124,
      "꫁ꪺ": 125,
      "ꪮꪒ": 126,
      "ꪱꪫ": 127,
      "ꪲ꪿": 128,
      "ꪷ꫁": 129,
      "ꪵꪀ": 130,
      "꫁ꪱꪥ": 131,
      "ꪻꪊ": 132,
      "ꪱꪣ": 133,
      "ꪹꪎ": 134,
      "ꪶꪁ": 135,
      "ꪰꪒ": 136,
      "꫁ꪮꪉ": 137,
      "ꪶꪎ": 138,
      "꫁ꪱꪙ": 139,
      "ꪹꪀ": 140,
      "ꪮꪚ": 141,
      "ꪶꪔ": 142,
      "꪿ꪮꪙ": 143,
      "ꪹꪜ": 144,
      "ꪸꪉ": 145,
      "ꪵꪄ": 146,
      "꫁ꪽ": 147,
      "ꪴ꫁": 148,
      "ꪹꪋ": 149,
      "꪿ꪮꪉ": 150,
      "ꪶꪩ": 151,
      "ꪹꪣ": 152,
      "ꪘ꫁ꪱ": 153,
      "꪿ꪫ": 154,
      "꪿ꪱꪫ": 155,
      "ꪴꪀ": 156,
      "ꪮꪣ": 157,
      "꫁ꪮꪙ": 158,
      "ꪹꪁ": 159,
      "ꪙꪾ꫁": 160,
      "ꪹꪨ": 161,
      "ꪵꪣ": 162,
      "ꪢꪱꪀ": 163,
      "ꪴꪒ": 164,
      "ꪺꪉ": 165,
      "ꪹꪮ": 166,
      "ꪰ꪿ꪉ": 167,
      "ꪲ꫁": 168,
      "ꪹꪥ": 169,
      "꫁ꪱꪫ": 170,
      "ꪺꪙ": 171,
      "꫁ꪱꪉ": 172,
      "ꪹꪩ": 173,
      "ꪱ꪿": 174,
      "꪿ꪱꪙ": 175,
      "ꪵꪁ": 176,
      "ꪲꪉ": 177,
      "ꪶꪚ": 178,
      "꪿ꪱꪥ": 179,
      "ꪣꪳ": 180,
      "ꪵꪭ": 181,
      "ꪹꪔ": 182,
      "ꪾ꪿": 183,
      "ꪬꪺ": 184,
      "ꪹꪕ": 185,
      "ꪹꪭꪙ": 186,
      "ꪀꪲꪙ": 187,
      "ꪵꪎ": 188,
      "꪿ꪮꪥ": 189,
      "ꪼꪜ": 190,
      "ꪁꪫ": 191,
      "ꪳꪙ": 192,
      "꪿ꪽ": 193,
      "ꪜꪲ": 194,
      "ꪵꪒ": 195,
      "ꪶꪕ": 196,
      "ꪔꪱ": 197,
      "ꪮꪥ": 198,
      "ꪸꪀ": 199,
      "ꪰ꫁ꪉ": 200,
      "ꪵꪩ": 201,
      "ꪹꪄꪱ꫁": 202,
      "ꪶꪄ": 203,
      "ꪷꪙ": 204,
      "ꪹꪬ": 205,
      "ꪲꪚ": 206,
      "ꪳ꪿": 207,
      "ꪴꪙ": 208,
      "ꪴꪚ": 209,
      "꫁ꪮꪣ": 210,
      "ꪶꪭ": 211,
      "ꪸꪣ": 212,
      "ꪜꪱꪀ": 213,
      "ꪸ꫁": 214,
      "ꪴꪣ": 215,
      "ꪵꪜ": 216,
      "ꪸ꪿ꪉ": 217,
      "꪿ꪣ": 218,
      "ꪵꪔ": 219,
      "ꪹꪥꪸꪒ": 220,
      "ꪲ꪿ꪉ": 221,
      "ꪳꪒ": 222,
      "ꪙ꫁ꪮꪥ": 223,
      "ꪮꪮꪀ": 224,
      "ꪵꪚ": 225,
      "ꪷꪉ": 226,
      "ꪶꪎꪚ": 227,
      "ꪔꪱꪥ": 228,
      "ꪳ꫁ꪙ": 229,
      "ꪸꪚ": 230,
      "ꪹꪚ꪿ꪱ": 231,
      "ꪸ꫁ꪙ": 232,
      "ꪹꪠ": 233,
      "ꪺꪒ": 234,
      "ꪹꪏ": 235,
      "ꪼꪀ": 236,
      "꫁ꪥ": 237,
      "ꪕꪱꪉ": 238,
      "ꪹꪊ": 239,
      "ꪹꪯ": 240,
      "ꪴ꫁ꪣ": 241,
      "꫁ꪱꪣ": 242,
      "ꪲ꫁ꪙ": 243,
      "ꪸ꫁ꪉ": 244,
      "ꪵꪠ": 245,
      "ꪵꪮ": 246,
      "ꪸꪫ": 247,
      "ꪹꪫ": 248,
      "ꪎꪳ": 249,
      "꫁ꪺꪥ": 250,
      "ꪲ꫁ꪫ": 251,
      "ꪴꪉ": 252,
      "ꪴ꪿ꪙ": 253,
      "ꪹꪉ": 254,
      "ꪷ꪿ꪀ": 255,
      "꪿ꪺꪥ": 256,
      "ꪶꪁꪙ": 257,
      "ꪁꪫꪱꪣ": 258,
      "꪿ꪺꪉ": 259,
      "ꪴ꪿ꪣ": 260,
      "ꪀꪱꪉ": 261,
      "ꪴ꪿ꪀ": 262,
      "ꪹꪙ": 263,
      "ꪹꪝ": 264,
      "ꪴ꪿ꪉ": 265,
      "ꪻꪎ": 266,
      "ꪀꪱꪥ": 267,
      "꪿ꪮꪣ": 268,
      "ꪏꪩ": 269,
      "ꪶꪜ": 270,
      "ꪶꪀ꪿ꪀ": 271,
      "ꪫ꪿ꪱ": 272,
      "ꪳ꪿ꪙ": 273,
      "ꪶꪠ": 274,
      "ꪹꪖ": 275,
      "ꪵꪝ": 276,
      "ꪵꪬ": 277,
      "ꪶꪙ": 278,
      "ꪹꪣꪉ": 279,
      "ꪒꪲꪙ": 280,
      "ꪺꪀ": 281,
      "ꪼꪣ": 282,
      "ꪁꪾ": 283,
      "ꪩꪴꪀ": 284,
      "ꪳꪣ": 285,
      "ꪵꪕ": 286,
      "꪿ꪱꪣ": 287,
      "ꪒꪲ": 288,
      "ꪡ꫁ꪱ": 289,
      "ꪨꪰꪉ": 290,
      "ꪷ꪿ꪉ": 291,
      "꪿ꪥ": 292,
      "ꪼꪣ꫁": 293,
      "ꪁꪩ": 294,
      "ꪜꪱ": 295,
      "ꪶꪮ": 296,
      "ꪵꪣ꪿": 297,
      "ꪎꪮꪉ": 298,
      "ꪤꪴ꪿": 299,
      "ꪵꪭꪉ": 300,
      "ꪬ꫁": 301,
      "ꪬꪮꪣ": 302,
      "ꪹꪢ": 303,
      "ꪁꪳꪙ": 304,
      "ꪣꪷ꪿": 305,
      "ꪹꪅ": 306,
      "ꪼꪎ": 307,
      "ꪶꪔ꪿ꪀ": 308,
      "ꪣꪲ": 309,
      "ꪶꪣ": 310,
      "ꪷꪥ": 311,
      "ꪼꪒ": 312,
      "ꪹꪜꪸꪙ": 313,
      "ꪼꪀ꪿": 314,
      "ꪣꪽ": 315,
      "꪿ꪺꪙ": 316,
      "ꪵꪒꪉ": 317,
      "ꪣꪱ": 318,
      "ꪳ꪿ꪉ": 319,
      "ꪵꪏ": 320,
      "ꪶꪊ": 321,
      "ꪸ꪿ꪀ": 322,
      "ꪁ꪿ꪱ": 323,
      "ꪮ꪿ꪮꪙ": 324,
      "ꪶꪬ": 325,
      "ꪹꪘ": 326,
      "ꪎꪴꪒ": 327,
      "ꪵꪊ": 328,
      "ꪶꪨ": 329,
      "ꪹꪛ": 330,
      "ꪼꪄ": 331,
      "ꪐ꪿": 332,
      "ꪔꪷ꪿": 333,
      "ꪹꪡ": 334,
      "ꪹꪤ": 335,
      "꫁ꪮꪀ": 336,
      "ꪹꪄ꫁ꪱ": 337,
      "ꪼꪒ꫁": 338,
      "ꪁꪷ": 339,
      "ꪎꪱꪥ": 340,
      "ꪔꪲꪙ": 341,
      "ꪶꪝ": 342,
      "ꪹꪒ": 343,
      "ꪼꪡ": 344,
      "ꪣꪳ꫁": 345,
      "ꪄꪲ꫁": 346,
      "ꪵꪙ": 347,
      "ꪸ꪿": 348,
      "ꪶꪙ꫁ꪀ": 349,
      "ꪚꪮꪀ": 350,
      "ꪠꪰꪀ": 351,
      "ꪩ꫁ꪱ": 352,
      "ꪮꪱꪥ": 353,
      "ꪚ꪿ꪱꪫ": 354,
      "ꪫꪸꪀ": 355,
      "ꪵꪋ": 356,
      "ꪷꪒ": 357,
      "ꪸ꪿ꪙ": 358,
      "ꪹꪎ꫁": 359,
      "ꪀꪮꪉ": 360,
      "ꪙꪮꪙ": 361,
      "ꪫꪱꪉ": 362,
      "ꪶꪏ": 363,
      "ꪶꪯ": 364,
      "ꪸ꪿ꪫ": 365,
      "ꪵꪀ꪿": 366,
      "ꪄꪱ": 367,
      "ꪝꪴ": 368,
      "ꪭ꫁ꪱꪥ": 369,
      "ꪵꪫ": 370,
      "꪿ꪱꪀ": 371,
      "ꪲ꪿ꪫ": 372,
      "ꪶꪩꪉ": 373,
      "ꪚ꫁ꪱ": 374,
      "ꪩꪒ": 375,
      "ꪮ꫁ꪱꪥ": 376,
      "ꪶꪋ": 377,
      "ꪹꪮꪱ": 378,
      "ꪹꪉꪷꪙ": 379,
      "ꪕꪳ": 380,
      "ꪬꪱ": 381,
      "ꪮ꫁ꪱ": 382,
      "ꪲꪣ": 383,
      "ꪚ꫁ꪱꪙ": 384,
      "ꪨꪱꪥ": 385,
      "ꪳꪀ": 386,
      "ꪶꪀꪉ": 387,
      "ꪻꪎ꪿": 388,
      "ꪀ꫁ꪱ": 389,
      "ꪎꪱꪫ": 390,
      "ꪲꪫ": 391,
      "ꪲ꪿ꪙ": 392,
      "ꪶꪡ": 393,
      "ꪶꪀ꫁ꪙ": 394,
      "ꪁꪱ": 395,
      "ꪕꪷ꪿": 396,
      "ꪬꪴ": 397,
      "ꪳꪉ": 398,
      "ꪴ꫁ꪉ": 399,
      "ꪶꪢ": 400,
      "ꪷꪚ": 401,
      "ꪷ꪿ꪙ": 402,
      "ꪻꪬ꫁": 403,
      "ꪎꪸ": 404,
      "ꪚꪰꪀ": 405,
      "ꪝꪷ꪿": 406,
      "ꪵꪯ": 407,
      "ꪼꪢ": 408,
      "꫁ꪺꪉ": 409,
      "꫁ꪺꪙ": 410,
      "ꪀꪽ": 411,
      "ꪁꪮꪚ": 412,
      "ꪙꪱ": 413,
      "ꪝꪱꪙ": 414,
      "ꪠ꫁ꪱꪥ": 415,
      "ꪤꪱ": 416,
      "ꪨꪺꪉ": 417,
      "ꪩꪱꪥ": 418,
      "ꪭꪴ꫁": 419,
      "ꪴ꫁ꪀ": 420,
      "ꪶꪖ": 421,
      "ꪶꪛ": 422,
      "ꪼꪕ": 423,
      "ꪴ꫁ꪥ": 424,
      "ꪜꪲ꫁ꪙ": 425,
      "ꪹꪙ꫁": 426,
      "ꪶꪮ꪿ꪉ": 427,
      "ꪄꪱꪒ": 428,
      "ꪔꪴ": 429,
      "ꪙ꫁ꪮꪉ": 430,
      "ꪙꪰ꪿ꪉ": 431,
      "ꪣꪲꪒ": 432,
      "ꪫꪱ": 433,
      "ꪼꪫ": 434,
      "ꪹꪁꪷ": 435,
      "ꪹꪯꪸꪣ": 436,
      "ꪼꪎ꫁": 437,
      "ꪁꪱꪚ": 438,
      "ꪁꪰꪒ": 439,
      "ꪎꪸꪉ": 440,
      "ꪚꪲꪒ": 441,
      "ꪝꪲ꪿": 442,
      "ꪢꪷ꫁": 443,
      "ꪩꪱꪉ": 444,
      "ꪵꪨ": 445,
      "ꪶꪒ": 446,
      "ꪹꪎꪷ꪿ꪀ": 447,
      "ꪵꪄꪙ": 448,
      "ꪹꪋꪷ": 449,
      "ꪶꪚꪉ": 450,
      "ꪎꪰꪀ": 451,
      "ꪝꪲ": 452,
      "ꪸ꫁ꪀ": 453,
      "ꪼꪭ": 454,
      "ꪵꪄꪉ": 455,
      "ꪹꪫꪸꪙ": 456,
      "ꪼꪫ꫁": 457,
      "ꪀ꪿ꪱꪥ": 458,
      "ꪄꪳ꫁ꪙ": 459,
      "ꪒꪾ": 460,
      "ꪠꪱ": 461,
      "ꪢꪴ": 462,
      "ꪵꪘ": 463,
      "ꪶꪤ": 464,
      "ꪶꪥ": 465,
      "ꪹꪚꪙ": 466,
      "ꪹꪨꪉ": 467,
      "ꪹꪕꪸꪉ": 468,
      "ꪀ꫁ꪫ": 469,
      "ꪀ꪿ꪱꪉ": 470,
      "ꪀꪺꪉ": 471,
      "ꪁꪽ": 472,
      "ꪁꪷ꫁": 473,
      "ꪄꪱꪫ": 474,
      "ꪔ꪿ꪱꪉ": 475,
      "ꪜ꪿ꪱ": 476,
      "ꪳ꫁": 477,
      "ꪳ꫁ꪀ": 478,
      "ꪶꪉ": 479,
      "ꪸ꫁ꪫ": 480,
      "ꪻꪒ": 481,
      "ꪻꪐ꪿": 482,
      "ꪵꪀ꪿ꪙ": 483,
      "ꪹꪋ꪿ꪉ": 484,
      "ꪹꪁꪷ꪿": 485,
      "ꪵꪣꪉ": 486,
      "ꪜꪲ꪿ꪙ": 487,
      "ꪀꪤ": 488,
      "ꪀꪫ": 489,
      "ꪄꪷ": 490,
      "ꪊꪾꪚ": 491,
      "ꪕꪾꪚ": 492,
      "ꪙꪽ": 493,
      "ꪚꪱꪙ": 494,
      "ꪠꪲ": 495,
      "ꪮ꪿ꪱꪙ": 496,
      "ꪮꪲ꫁ꪙ": 497,
      "ꪲꪀ": 498,
      "ꪳꪚ": 499,
      "ꪵꪅ": 500,
      "ꪻꪚ": 501,
      "ꪵꪄꪫ": 502,
      "ꪵꪒꪒ": 503,
      "ꪀꪷ": 504,
      "ꪁꪾ꫁": 505,
      "ꪄ꫁ꪱ": 506,
      "ꪅꪰꪀ": 507,
      "ꪊꪰꪀ": 508,
      "ꪋ꪿ꪺ": 509,
      "ꪐ꫁ꪱ": 510,
      "ꪢꪱ": 511,
      "ꪨ꫁ꪱ": 512,
      "ꪩꪱꪒ": 513,
      "ꪩꪱꪣ": 514,
      "ꪭꪴ꪿ꪉ": 515,
      "ꪲ꫁ꪉ": 516,
      "ꪵꪉ": 517,
      "ꪵꪮꪚ": 518,
      "ꪶꪀ꪿ꪉ": 519,
      "꫁ꪺꪣ": 520,
      "ꪹꪢꪸꪒ": 521,
      "ꪄꪮꪉ": 522,
      "ꪋꪱ": 523,
      "ꪒꪾꪚ": 524,
      "ꪓꪙ": 525,
      "ꪔꪰ꫁ꪉ": 526,
      "ꪘꪰꪀ": 527,
      "ꪜꪲꪒ": 528,
      "ꪢ꫁ꪱ": 529,
      "ꪣ꫁ꪱ": 530,
      "ꪩꪺꪉ": 531,
      "ꪬꪱꪉ": 532,
      "ꪲ꫁ꪣ": 533,
      "ꪵꪥ": 534,
      "ꪹꪐ": 535,
      "ꪼꪅ": 536,
      "ꪹꪚꪱ꪿": 537,
      "ꪶꪁꪣ": 538,
      "ꪶꪎ꫁ꪣ": 539,
      "ꪁꪫꪱꪥ": 540,
      "ꪁꪺꪙ": 541,
      "ꪒꪲꪒ": 542,
      "ꪒꪴꪀ": 543,
      "ꪔꪱꪣ": 544,
      "ꪙ꫁ꪽ": 545,
      "ꪣꪺ": 546,
      "ꪭꪱꪉ": 547,
      "ꪵꪪ": 548,
      "ꪵꪮꪀ": 549,
      "ꪸ꫁ꪣ": 550,
      "ꪷ꪿ꪣ": 551,
      "ꪵꪩ꫁ꪫ": 552,
      "ꪹꪊ꫁ꪱ": 553,
      "ꪎꪳꪚ": 554,
      "ꪼꪅ꫁": 555,
      "ꪀ꪿ꪱ": 556,
      "ꪀ꪿ꪮꪙ": 557,
      "ꪀ꫁ꪺꪥ": 558,
      "ꪊꪸ꫁": 559,
      "ꪏꪳ꪿": 560,
      "ꪔꪽ": 561,
      "ꪔ꪿ꪮꪙ": 562,
      "ꪘꪰ꫁ꪉ": 563,
      "ꪚ꪿ꪱ": 564,
      "ꪚ꪿ꪮꪉ": 565,
      "ꪚꪴꪙ": 566,
      "ꪠꪴ꫁": 567,
      "ꪣ꪿ꪺꪙ": 568,
      "ꪨꪷ": 569,
      "ꪩꪱ": 570,
      "ꪮ꫁ꪮꪥ": 571,
      "ꪵꪓꪙ": 572,
      "꪿ꪮꪀ": 573,
      "ꪹꪎꪱ": 574,
      "ꪵꪄꪀ": 575,
      "꪿ꪫꪱ": 576,
      "ꪹꪨꪱ꫁": 577,
      "ꪶꪭꪣ": 578,
      "ꪵꪔꪀ": 579,
      "ꪶꪣꪙ": 580,
      "ꪹꪤꪸꪙ": 581,
      "ꪀꪾ": 582,
      "ꪀꪾꪚ": 583,
      "ꪀꪮꪚ": 584,
      "ꪁꪮꪙ": 585,
      "ꪁꪾꪚ": 586,
      "ꪄꪮꪒ": 587,
      "ꪈꪾ꪿": 588,
      "ꪊꪲ꪿": 589,
      "ꪎꪴ꪿": 590,
      "ꪒ꪿ꪮꪙ": 591,
      "ꪚꪷ": 592,
      "ꪚꪱꪉ": 593,
      "ꪝꪾꪚ": 594,
      "ꪩ꫁ꪱꪫ": 595,
      "ꪭꪮꪒ": 596,
      "ꪲ꪿ꪀ": 597,
      "ꪳ꪿ꪀ": 598,
      "ꪶꪅ": 599,
      "ꪶꪑ": 600,
      "ꪹꪑ": 601,
      "ꪺꪥ": 602,
      "ꪻꪢ": 603,
      "꪿ꪺꪣ": 604,
      "ꪶꪎꪣ": 605,
      "ꪶꪩꪒ": 606,
      "ꪶꪩꪣ": 607,
      "ꪹꪣꪱ": 608,
      "ꪵꪣ꪿ꪙ": 609,
      "ꪶꪄꪙ": 610,
      "ꪶꪄꪣ": 611,
      "ꪶꪠꪙ": 612,
      "ꪀꪺꪙ": 613,
      "ꪁꪴ": 614,
      "ꪊꪾ": 615,
      "ꪎ꪿ꪱꪉ": 616,
      "ꪎꪰꪉ": 617,
      "ꪎ꫁ꪱꪉ": 618,
      "ꪎ꫁ꪺꪉ": 619,
      "ꪑꪲꪉ": 620,
      "ꪒꪴ": 621,
      "ꪜꪱꪉ": 622,
      "ꪜꪰꪉ": 623,
      "ꪝꪷ": 624,
      "ꪝꪽ": 625,
      "ꪠ꫁ꪱ": 626,
      "ꪠꪲꪒ": 627,
      "ꪡꪳ꫁ꪙ": 628,
      "ꪥꪱꪀ": 629,
      "ꪨꪱꪀ": 630,
      "ꪩꪰꪀ": 631,
      "ꪬꪽ": 632,
      "ꪬꪴ꪿ꪙ": 633,
      "ꪺꪚ": 634,
      "ꪼꪏ": 635,
      "ꪼꪖ": 636,
      "ꪵꪀꪫ": 637,
      "ꪵꪀ꫁": 638,
      "ꪶꪁꪩ": 639,
      "ꪵꪄ꫁ꪫ": 640,
      "ꪹꪩꪒ": 641,
      "ꪶꪕ꫁ꪀ": 642,
      "ꪹꪊꪸꪚ": 643,
      "ꪀꪒ": 644,
      "ꪀꪨ": 645,
      "ꪀꪷ꪿": 646,
      "ꪀꪱꪒ": 647,
      "ꪀꪱꪚ": 648,
      "ꪀ꫁ꪮꪉ": 649,
      "ꪁꪮꪉ": 650,
      "ꪁꪮꪒ": 651,
      "ꪄꪽ": 652,
      "ꪄꪱꪙ": 653,
      "ꪄꪺꪙ": 654,
      "ꪋ꫁ꪱꪥ": 655,
      "ꪎꪷ": 656,
      "ꪎꪱꪙ": 657,
      "ꪘꪰꪉ": 658,
      "ꪚꪲꪙ": 659,
      "ꪜꪴꪣ": 660,
      "ꪝꪮꪉ": 661,
      "ꪣꪰꪀ": 662,
      "ꪭꪱꪥ": 663,
      "ꪮꪮꪙ": 664,
      "ꪮꪱꪫ": 665,
      "ꪵꪖ": 666,
      "ꪷꪀ": 667,
      "ꪹꪚꪱ": 668,
      "ꪹꪚꪷ": 669,
      "ꪶꪀꪚ": 670,
      "ꪶꪁꪚ": 671,
      "ꪹꪋꪸ꫁ꪙ": 672,
      "ꪶꪩ꪿ꪉ": 673,
      "ꪵꪩ꪿ꪙ": 674,
      "ꪵꪜꪀ": 675,
      "ꪵꪠꪚ": 676,
      "ꪼꪎ꪿": 677,
      "ꪀꪾ꪿": 678,
      "ꪁꪺꪉ": 679,
      "ꪁ꫁ꪱꪉ": 680,
      "ꪁꪺꪒ": 681,
      "ꪋ꫁": 682,
      "ꪋ꪿ꪽ": 683,
      "ꪎꪱ": 684,
      "ꪎꪲꪚ": 685,
      "ꪔ꫁": 686,
      "ꪔꪳ꪿ꪙ": 687,
      "ꪙꪱꪉ": 688,
      "ꪚꪲ꪿": 689,
      "ꪝꪱ": 690,
      "ꪡꪮꪉ": 691,
      "ꪢꪮꪉ": 692,
      "ꪣꪸ": 693,
      "ꪨꪀ": 694,
      "ꪨꪱꪙ": 695,
      "ꪩꪱꪀ": 696,
      "ꪭꪲ": 697,
      "ꪴꪥ": 698,
      "ꪶꪚ꫁ꪉ": 699,
      "ꪹꪔꪸꪣ": 700,
      "ꪵꪙꪫ": 701,
      "ꪁꪲꪉ": 702,
      "ꪁꪾ꪿": 703,
      "ꪄꪫ": 704,
      "ꪄꪱꪥ": 705,
      "ꪄꪷ꪿": 706,
      "ꪎꪲꪒ": 707,
      "ꪏꪲ꫁ꪙ": 708,
      "ꪓꪷꪥ": 709,
      "ꪔꪲ꪿ꪉ": 710,
      "ꪘꪱꪫ": 711,
      "ꪙꪲ꫁": 712,
      "ꪚꪱꪒ": 713,
      "ꪜꪴ꪿": 714,
      "ꪜꪰꪒ": 715,
      "ꪝꪳꪉ": 716,
      "ꪢ꫁ꪽ": 717,
      "ꪣꪮꪉ": 718,
      "ꪨꪴ꪿": 719,
      "ꪨ꪿ꪽ": 720,
      "ꪩꪲ": 721,
      "ꪩꪾ": 722,
      "ꪩꪳꪣ": 723,
      "ꪬ꪿ꪱꪉ": 724,
      "ꪭ꫁ꪮꪙ": 725,
      "ꪮꪱ": 726,
      "ꪮꪲ꪿": 727,
      "ꪳ꫁ꪉ": 728,
      "ꪷꪣ": 729,
      "ꪹꪓꪷꪥ": 730,
      "ꪻꪠ": 731,
      "ꪼꪨ": 732,
      "ꪹꪚꪷ꪿ꪉ": 733,
      "ꪵꪀ꫁ꪫ": 734,
      "ꪹꪎꪉ": 735,
      "ꪵꪭ꪿ꪫ": 736,
      "ꪹꪬꪸꪙ": 737,
      "ꪹꪬꪷꪉ": 738,
      "ꪵꪚ꫁ꪫ": 739,
      "ꪵꪮꪫ": 740,
      "ꪀ꫁ꪮꪙ": 741,
      "ꪀꪳ꪿": 742,
      "ꪀꪸ꫁ꪉ": 743,
      "ꪀꪲ꪿ꪫ": 744,
      "ꪁꪳꪣ": 745,
      "ꪄ꪿ꪺꪉ": 746,
      "ꪉꪴ": 747,
      "ꪉ꪿ꪱꪥ": 748,
      "ꪊꪰ꪿ꪉ": 749,
      "ꪋ꪿ꪱꪉ": 750,
      "ꪎꪲ": 751,
      "ꪏꪴꪣ": 752,
      "ꪑꪷ": 753,
      "ꪒꪮꪙ": 754,
      "ꪒ꪿ꪱꪉ": 755,
      "ꪒ꫁ꪱꪙ": 756,
      "ꪕꪮꪒ": 757,
      "ꪕ꫁ꪮꪉ": 758,
      "ꪕꪰ꪿ꪉ": 759,
      "ꪘꪮꪉ": 760,
      "ꪚꪰ꫁ꪉ": 761,
      "ꪜꪺ": 762,
      "ꪜꪱꪥ": 763,
      "ꪠ꪿ꪱ": 764,
      "ꪠꪰꪒ": 765,
      "ꪤꪱꪉ": 766,
      "ꪤ꪿ꪱꪉ": 767,
      "ꪥꪰ꫁ꪉ": 768,
      "ꪬꪷ": 769,
      "ꪭ꫁ꪮꪉ": 770,
      "ꪮꪺꪙ": 771,
      "ꪮ꪿ꪺꪥ": 772,
      "ꪵꪡ": 773,
      "ꪷ꫁ꪙ": 774,
      "ꪹꪐ꪿": 775,
      "ꪼꪚ": 776,
      "ꪶꪀ꫁ꪣ": 777,
      "꫁ꪺꪀ": 778,
      "ꪹꪣ꪿": 779,
      "꪿ꪫꪱꪉ": 780,
      "ꪹꪁꪸ": 781,
      "ꪹꪩꪱ꪿": 782,
      "ꪵꪎꪉ": 783,
      "ꪶꪕ꫁ꪥ": 784,
      "ꪵꪔ꪿ꪉ": 785,
      "ꪶꪜ꪿ꪀ": 786,
      "ꪼꪭ꪿": 787,
      "ꪻꪢ꪿": 788,
      "ꪀ꫁ꪽ": 789,
      "ꪀꪴ꫁": 790,
      "ꪀ꪿ꪱꪫ": 791,
      "ꪀꪴꪒ": 792,
      "ꪀꪸ꫁ꪫ": 793,
      "ꪀ꪿ꪺꪣ": 794,
      "ꪁꪱꪉ": 795,
      "ꪁꪴꪉ": 796,
      "ꪄ꪿ꪱ": 797,
      "ꪄꪴ꪿ꪙ": 798,
      "ꪄ꫁ꪺꪣ": 799,
      "ꪉꪱ": 800,
      "ꪊꪮꪣ": 801,
      "ꪎꪨꪰꪉ": 802,
      "ꪏꪳ": 803,
      "ꪒꪱꪫ": 804,
      "ꪖꪳꪀ": 805,
      "ꪙꪰꪀ": 806,
      "ꪚꪱꪚ": 807,
      "ꪚꪴꪒ": 808,
      "ꪛꪩ": 809,
      "ꪜꪽ": 810,
      "ꪡꪽ": 811,
      "ꪡꪰꪒ": 812,
      "ꪣꪱꪙ": 813,
      "ꪤ꪿ꪮꪉ": 814,
      "ꪨꪴꪒ": 815,
      "ꪬꪱꪚ": 816,
      "ꪭꪱꪒ": 817,
      "ꪮ꪿ꪱꪀ": 818,
      "ꪼꪁ": 819,
      "ꪼꪩ": 820,
      "ꪼꪪ": 821,
      "ꪼꪬ": 822,
      "ꪹꪭꪸ": 823,
      "ꪹꪭ꪿": 824,
      "ꪵꪀ꪿ꪉ": 825,
      "ꪶꪁ꫁ꪙ": 826,
      "ꪶꪎ꪿": 827,
      "ꪹꪀꪒ": 828,
      "ꪹꪀ꪿ꪱ": 829,
      "ꪹꪀꪸꪚ": 830,
      "ꪶꪩ꫁ꪣ": 831,
      "ꪣꪳꪒ": 832,
      "ꪵꪎꪙ": 833,
      "ꪁꪫꪱ": 834,
      "ꪶꪭ꪿": 835,
      "ꪵꪮ꪿": 836,
      "ꪶꪜꪉ": 837,
      "ꪵꪫ꪿ꪙ": 838,
      "ꪀꪫꪱꪙ": 839,
      "ꪀ꫁ꪱꪣ": 840,
      "ꪁꪱꪥ": 841,
      "ꪁꪷ꪿": 842,
      "ꪄꪰꪒ": 843,
      "ꪄ꫁ꪮꪉ": 844,
      "ꪅ꫁ꪽ": 845,
      "ꪉꪺ": 846,
      "ꪊꪸꪉ": 847,
      "ꪊꪳ꪿": 848,
      "ꪋ꫁ꪱ": 849,
      "ꪋ꫁ꪮꪥ": 850,
      "ꪎꪴ꫁": 851,
      "ꪎꪸꪫ": 852,
      "ꪏꪲ": 853,
      "ꪏ꪿ꪱ": 854,
      "ꪏꪱꪙ": 855,
      "ꪑꪰꪉ": 856,
      "ꪒꪰꪉ": 857,
      "ꪒꪸꪫ": 858,
      "ꪔꪾ": 859,
      "ꪔꪱꪉ": 860,
      "ꪔꪴ꫁ꪣ": 861,
      "ꪕꪾ": 862,
      "ꪖ꫁ꪺꪥ": 863,
      "ꪘꪷ꪿": 864,
      "ꪙꪱꪥ": 865,
      "ꪚꪮꪉ": 866,
      "ꪚ꪿ꪺ": 867,
      "ꪜꪲ꪿": 868,
      "ꪜꪸꪀ": 869,
      "ꪜꪸ꪿ꪙ": 870,
      "ꪝꪲꪉ": 871,
      "ꪠꪴꪉ": 872,
      "ꪩꪾꪚ": 873,
      "ꪬ꪿ꪱ": 874,
      "ꪬꪱꪥ": 875,
      "ꪬꪲꪙ": 876,
      "ꪬꪮꪥ": 877,
      "ꪭꪴ": 878,
      "ꪭꪰꪀ": 879,
      "ꪭꪱꪣ": 880,
      "ꪵꪤ": 881,
      "ꪶꪮꪒ": 882,
      "ꪼꪝ": 883,
      "ꪼꪬ꫁": 884,
      "ꪶꪀꪙ": 885,
      "ꪹꪭꪱ": 886,
      "ꪹꪄꪸꪒ": 887,
      "ꪵꪀꪉ": 888,
      "ꪹꪎꪸꪙ": 889,
      "ꪶꪁꪒ": 890,
      "ꪹꪀꪸꪒ": 891,
      "ꪶꪔꪚ": 892,
      "ꪹꪋ꫁": 893,
      "ꪹꪨꪸ꪿ꪀ": 894,
      "ꪹꪮꪸ": 895,
      "ꪹꪔꪱ꫁": 896,
      "ꪹꪕ꪿": 897,
      "ꪹꪕꪱ꫁": 898,
      "ꪵꪒ꫁": 899,
      "ꪵꪜ꫁ꪙ": 900,
      "ꪵꪔ꪿": 901,
      "ꪵꪕ꫁": 902,
      "ꪵꪋꪙ": 903,
      "ꪶꪯꪥ": 904,
      "ꪶꪛꪚ": 905,
      "ꪵꪨꪣ": 906,
      "ꪵꪅꪫ": 907,
      "ꪀꪱꪀ": 908,
      "ꪀꪷ꫁": 909,
      "ꪀꪴꪚ": 910,
      "ꪁ꫁ꪱꪙ": 911,
      "ꪁ꫁ꪱꪫ": 912,
      "ꪄꪱꪉ": 913,
      "ꪄꪲꪒ": 914,
      "ꪄꪾꪚ": 915,
      "ꪄ꫁ꪮꪥ": 916,
      "ꪅꪱ": 917,
      "ꪅꪱꪚ": 918,
      "ꪋꪳ꪿": 919,
      "ꪋꪲ꫁ꪫ": 920,
      "ꪎꪴ": 921,
      "ꪎꪱꪉ": 922,
      "ꪎꪮꪒ": 923,
      "ꪒꪱꪥ": 924,
      "ꪒꪰꪀ": 925,
      "ꪒꪲꪚ": 926,
      "ꪔꪰꪒ": 927,
      "ꪔ꫁ꪮꪉ": 928,
      "ꪔꪮꪣ": 929,
      "ꪔ꫁ꪮꪙ": 930,
      "ꪔꪰ꪿ꪉ": 931,
      "ꪔ꪿ꪮꪥ": 932,
      "ꪕ꪿ꪱ": 933,
      "ꪕꪴꪙ": 934,
      "ꪘꪴ": 935,
      "ꪘꪳꪉ": 936,
      "ꪙ꫁ꪱ": 937,
      "ꪙꪳ꪿ꪉ": 938,
      "ꪜꪰꪀ": 939,
      "ꪜꪱꪙ": 940,
      "ꪜꪴꪙ": 941,
      "ꪠꪺ": 942,
      "ꪤꪾ": 943,
      "ꪥꪱꪚ": 944,
      "ꪨꪰꪀ": 945,
      "ꪨꪴ꫁ꪣ": 946,
      "ꪩꪲꪙ": 947,
      "ꪩꪲꪉ": 948,
      "ꪩꪸ꫁ꪉ": 949,
      "ꪪꪱꪙ": 950,
      "ꪭꪳ": 951,
      "ꪭꪱꪀ": 952,
      "ꪭ꫁ꪺ": 953,
      "ꪮ꫁ꪮꪣ": 954,
      "ꪳ꫁ꪣ": 955,
      "ꪶꪈ": 956,
      "ꪼꪛ": 957,
      "ꪹꪚꪸꪒ": 958,
      "ꪹꪚꪸ꫁": 959,
      "ꪹꪭꪸ꪿ꪉ": 960,
      "ꪹꪄꪥ": 961,
      "ꪹꪄꪱ": 962,
      "ꪹꪜ꫁ꪱ": 963,
      "ꪵꪁꪫ": 964,
      "ꪵꪁ꪿ꪉ": 965,
      "ꪶꪚ꫁": 966,
      "ꪵꪎꪚ": 967,
      "ꪶꪭ꫁ꪥ": 968,
      "ꪵꪜꪉ": 969,
      "ꪶꪠꪣ": 970,
      "ꪵꪕꪫ": 971,
      "ꪁꪩꪷ꫁": 972,
      "ꪵꪊꪚ": 973,
      "ꪹꪛꪸ꫁ꪉ": 974,
      "ꪼꪢ꪿": 975,
      "ꪝꪲ꫁ꪀ": 976,
      "ꪀꪱ": 977,
      "ꪀꪱꪫ": 978,
      "ꪀꪰꪒ": 979,
      "ꪀ꫁ꪮꪣ": 980,
      "ꪁꪱꪒ": 981,
      "ꪁ꪿ꪮꪥ": 982,
      "ꪁ꫁ꪺꪀ": 983,
      "ꪄꪮꪙ": 984,
      "ꪅꪮꪚ": 985,
      "ꪉꪮꪥ": 986,
      "ꪊ꪿ꪮꪉ": 987,
      "ꪋꪲ": 988,
      "ꪋꪱꪥ": 989,
      "ꪎꪱꪀ": 990,
      "ꪎꪮꪙ": 991,
      "ꪎꪮꪥ": 992,
      "ꪎꪸ꫁ꪉ": 993,
      "ꪎꪴ꪿ꪀ": 994,
      "ꪏꪴ꫁ꪀ": 995,
      "ꪑ꪿ꪱꪉ": 996,
      "ꪒꪱ": 997,
      "ꪒ꪿ꪱꪙ": 998,
      "ꪒꪲ꫁ꪙ": 999,
      "ꪔꪮꪚ": 1000,
      "ꪕꪰꪀ": 1001,
      "ꪕꪱꪙ": 1002,
      "ꪕꪮꪚ": 1003,
      "ꪖꪱꪀ": 1004,
      "ꪖ꪿ꪮꪉ": 1005,
      "ꪖꪲ꫁ꪣ": 1006,
      "ꪚꪷ꪿": 1007,
      "ꪚꪮꪙ": 1008,
      "ꪚ꫁ꪮꪙ": 1009,
      "ꪚꪴꪚ": 1010,
      "ꪜꪴ": 1011,
      "ꪜꪮꪀ": 1012,
      "ꪜ꫁ꪱꪙ": 1013,
      "ꪜ꫁ꪮꪣ": 1014,
      "ꪝ꫁ꪮꪣ": 1015,
      "ꪠꪱꪙ": 1016,
      "ꪠꪸꪉ": 1017,
      "ꪠꪴꪀ": 1018,
      "ꪡꪰꪉ": 1019,
      "ꪢꪮꪀ": 1020,
      "ꪤꪮꪉ": 1021,
      "ꪤꪸꪒ": 1022,
      "ꪤ꪿ꪱꪫ": 1023,
      "ꪨꪷ꫁": 1024,
      "ꪩ꫁": 1025,
      "ꪬ꫁ꪱ": 1026,
      "ꪬꪷ꪿": 1027,
      "ꪬꪱꪙ": 1028,
      "ꪬ꫁ꪮꪉ": 1029,
      "ꪭꪰꪒ": 1030,
      "ꪭ꪿ꪱꪫ": 1031,
      "ꪭꪸꪀ": 1032,
      "ꪭꪲꪣ": 1033,
      "ꪮꪳꪒ": 1034,
      "ꪹꪈ": 1035,
      "ꪻꪁ": 1036,
      "ꪻꪋ꫁": 1037,
      "ꪼꪙ": 1038,
      "ꪼꪠ": 1039,
      "ꪹꪚꪸꪉ": 1040,
      "ꪹꪭ꫁": 1041,
      "ꪶꪁ꫁ꪀ": 1042,
      "ꪶꪎ꪿ꪉ": 1043,
      "ꪹꪀꪷ꪿ꪀ": 1044,
      "ꪶꪔ꫁": 1045,
      "ꪹꪜ꪿ꪱ": 1046,
      "ꪹꪜꪱ꫁": 1047,
      "ꪹꪜꪷꪒ": 1048,
      "ꪹꪋꪀ": 1049,
      "ꪹꪋꪱ꫁": 1050,
      "ꪹꪋꪷ꪿ꪉ": 1051,
      "ꪹꪁ꫁ꪱ": 1052,
      "ꪹꪨ꫁ꪙ": 1053,
      "ꪹꪮ꫁ꪥ": 1054,
      "ꪹꪮꪷ꪿ꪀ": 1055,
      "ꪹꪩꪱ": 1056,
      "ꪹꪩꪷꪉ": 1057,
      "ꪵꪁꪚ": 1058,
      "ꪶꪚꪒ": 1059,
      "ꪵꪭ꫁ꪫ": 1060,
      "ꪹꪕꪱ": 1061,
      "ꪼꪜ꪿": 1062,
      "ꪵꪜ꫁": 1063,
      "ꪵꪔ꫁ꪣ": 1064,
      "ꪵꪚꪙ": 1065,
      "ꪵꪚ꪿ꪙ": 1066,
      "ꪹꪠꪷ꪿ꪉ": 1067,
      "ꪹꪏꪉ": 1068,
      "ꪹꪯꪸ": 1069,
      "ꪹꪙꪱ꪿": 1070,
      "ꪹꪖꪱ꫁": 1071,
      "ꪵꪝꪉ": 1072,
      "ꪵꪬ꫁ꪉ": 1073,
      "ꪵꪬ꪿ꪫ": 1074,
      "ꪶꪣꪒ": 1075,
      "ꪹꪒꪸ꪿ꪀ": 1076,
      "ꪶꪤ꪿ꪉ": 1077,
      "ꪵꪄꪫꪙ": 1078,
      "ꪵꪪ꪿ꪉ": 1079,
      "ꪀꪮꪀ": 1080,
      "ꪀꪮꪙ": 1081,
      "ꪀ꪿ꪽ": 1082,
      "ꪀ꪿ꪺꪥ": 1083,
      "ꪀ꪿ꪱꪀ": 1084,
      "ꪀꪲ꫁ꪉ": 1085,
      "ꪁꪲ": 1086,
      "ꪁ꫁ꪮꪙ": 1087,
      "ꪁ꪿ꪺꪥ": 1088,
      "ꪄ꪿ꪱꪥ": 1089,
      "ꪅꪱꪫ": 1090,
      "ꪉꪱꪚ": 1091,
      "ꪊꪱꪙ": 1092,
      "ꪊꪲꪒ": 1093,
      "ꪋꪱꪉ": 1094,
      "ꪋꪮꪙ": 1095,
      "ꪋꪸꪙ": 1096,
      "ꪋꪷ꫁": 1097,
      "ꪋ꪿ꪮꪥ": 1098,
      "ꪋꪳꪀ": 1099,
      "ꪎ꫁ꪮꪥ": 1100,
      "ꪎ꪿ꪺꪥ": 1101,
      "ꪏ꫁ꪱꪫ": 1102,
      "ꪔ꫁ꪱ": 1103,
      "ꪔꪮꪀ": 1104,
      "ꪔꪲꪒ": 1105,
      "ꪔꪮꪒ": 1106,
      "ꪔꪾ꪿": 1107,
      "ꪔꪸ꪿ꪉ": 1108,
      "ꪕꪸꪙ": 1109,
      "ꪖ꫁ꪱ": 1110,
      "ꪖ꪿ꪺ": 1111,
      "ꪖꪲ꪿": 1112,
      "ꪖꪸꪉ": 1113,
      "ꪘꪱ": 1114,
      "ꪘ꪿ꪺꪉ": 1115,
      "ꪙꪮꪀ": 1116,
      "ꪙꪴꪣ": 1117,
      "ꪙꪲ꫁ꪫ": 1118,
      "ꪚ꫁ꪮꪉ": 1119,
      "ꪚ꪿ꪮꪙ": 1120,
      "ꪚ꫁ꪮꪣ": 1121,
      "ꪛ꫁ꪱꪙ": 1122,
      "ꪜ꫁ꪱ": 1123,
      "ꪜꪱꪚ": 1124,
      "ꪜ꪿ꪮꪉ": 1125,
      "ꪝꪰꪒ": 1126,
      "ꪝꪴ꪿ꪉ": 1127,
      "ꪠꪴ": 1128,
      "ꪠꪱꪉ": 1129,
      "ꪠ꪿ꪱꪥ": 1130,
      "ꪡꪱꪥ": 1131,
      "ꪣ꫁ꪮꪙ": 1132,
      "ꪤꪳꪒ": 1133,
      "ꪤꪺꪒ": 1134,
      "ꪥ꪿ꪱ": 1135,
      "ꪨꪺ": 1136,
      "ꪨꪮꪒ": 1137,
      "ꪩꪮꪙ": 1138,
      "ꪩꪲ꫁ꪫ": 1139,
      "ꪩꪴꪉ": 1140,
      "ꪫꪱꪫ": 1141,
      "ꪬꪰꪀ": 1142,
      "ꪬꪾꪚ": 1143,
      "ꪬꪮꪒ": 1144,
      "ꪬꪴꪀ": 1145,
      "ꪬꪸ꪿ꪉ": 1146,
      "ꪭ꫁ꪱ": 1147,
      "ꪭ꪿ꪱꪉ": 1148,
      "ꪭꪷ꫁": 1149,
      "ꪮ꪿ꪱ": 1150,
      "ꪮꪱꪙ": 1151,
      "ꪮꪸꪙ": 1152,
      "ꪮꪾ꫁": 1153,
      "ꪮꪱꪚ": 1154,
      "ꪮ꫁ꪮꪙ": 1155,
      "ꪮ꪿ꪮꪥ": 1156,
      "ꪮꪳꪙ": 1157,
      "ꪮꪲ꪿ꪉ": 1158,
      "ꪮꪲ꪿ꪙ": 1159,
      "ꪵꪐ": 1160,
      "ꪶꪓ": 1161,
      "ꪶꪗ": 1162,
      "ꪻꪔ꫁": 1163,
      "ꪼꪐ": 1164,
      "ꪼꪔ": 1165,
      "ꪷ꪿ꪥ": 1166,
      "ꪹꪚꪸ꫁ꪣ": 1167,
      "ꪶꪀꪣ": 1168,
      "ꪵꪀꪚ": 1169,
      "ꪶꪁ꫁ꪉ": 1170,
      "ꪶꪎꪙ": 1171,
      "ꪹꪀꪷ꪿ꪣ": 1172,
      "ꪶꪔ꫁ꪙ": 1173,
      "ꪹꪜꪱ꪿": 1174,
      "ꪹꪜ꪿ꪥ": 1175,
      "ꪹꪋꪱ": 1176,
      "ꪶꪩ꫁ꪙ": 1177,
      "ꪹꪁꪸꪣ": 1178,
      "ꪹꪨ꫁ꪱ": 1179,
      "ꪵꪣꪙ": 1180,
      "ꪹꪥ꪿ꪉ": 1181,
      "ꪹꪩꪀ": 1182,
      "ꪵꪁ꫁ꪙ": 1183,
      "ꪵꪁ꫁ꪫ": 1184,
      "ꪹꪔꪷ꪿ꪀ": 1185,
      "ꪹꪔꪸ꪿ꪀ": 1186,
      "ꪹꪕꪱ꪿": 1187,
      "ꪶꪕꪣ": 1188,
      "ꪶꪕ꪿": 1189,
      "ꪶꪕ꪿ꪉ": 1190,
      "ꪹꪬꪀ": 1191,
      "ꪹꪬꪸꪒ": 1192,
      "ꪵꪔꪉ": 1193,
      "ꪵꪠ꪿ꪙ": 1194,
      "ꪹꪉꪱ": 1195,
      "ꪶꪜꪒ": 1196,
      "ꪹꪖꪀ": 1197,
      "ꪹꪖꪷꪉ": 1198,
      "ꪹꪅꪷ꫁": 1199,
      "ꪶꪊꪣ": 1200,
      "ꪶꪬꪒ": 1201,
      "ꪶꪨꪉ": 1202,
      "ꪹꪛꪸ꫁ꪀ": 1203,
      "ꪶꪏꪉ": 1204,
      "ꪶꪯ꪿": 1205,
      "ꪶꪡꪒ": 1206,
      "ꪶꪢ꪿ꪀ": 1207,
      "ꪶꪖꪉ": 1208,
      "ꪼꪭ꫁": 1209,
      "ꪀ꫁ꪫꪱꪉ": 1210,
      "ꪀꪒ꫁ꪱꪉ": 1211,
      "ꪀꪔ": 1212,
      "ꪀꪴ꪿": 1213,
      "ꪀꪲꪒ": 1214,
      "ꪀ꫁ꪮꪥ": 1215,
      "ꪀ꫁ꪱꪥ": 1216,
      "ꪀ꫁ꪱꪙ": 1217,
      "ꪀ꪿ꪮꪉ": 1218,
      "ꪀꪳꪙ": 1219,
      "ꪀꪴ꪿ꪣ": 1220,
      "ꪁꪱꪙ": 1221,
      "ꪁꪴ꪿": 1222,
      "ꪁꪰꪉ": 1223,
      "ꪁ꫁ꪽ": 1224,
      "ꪁꪲꪣ": 1225,
      "ꪄꪲ꪿": 1226,
      "ꪄ꫁ꪽ": 1227,
      "ꪄ꫁ꪮꪙ": 1228,
      "ꪄꪾ꪿": 1229,
      "ꪄꪴꪣ": 1230,
      "ꪄ꪿ꪺꪥ": 1231,
      "ꪄꪫꪱꪉ": 1232,
      "ꪅꪮꪉ": 1233,
      "ꪈꪲꪒ": 1234,
      "ꪉꪱꪥ": 1235,
      "ꪉꪱꪙ": 1236,
      "ꪉꪳ꫁ꪀ": 1237,
      "ꪊꪱꪀ": 1238,
      "ꪊꪾ꫁": 1239,
      "ꪊ꪿ꪱꪉ": 1240,
      "ꪊꪱꪫ": 1241,
      "ꪊ꫁ꪱꪉ": 1242,
      "ꪊꪲꪉ": 1243,
      "ꪊꪴ꪿ꪀ": 1244,
      "ꪋꪱꪙ": 1245,
      "ꪋ꫁ꪮꪉ": 1246,
      "ꪋꪲ꫁": 1247,
      "ꪎꪸꪒ": 1248,
      "ꪎ꫁ꪮꪉ": 1249,
      "ꪎ꫁ꪽ": 1250,
      "ꪎ꫁ꪮꪙ": 1251,
      "ꪎꪺꪙ": 1252,
      "ꪎ꪿ꪱꪥ": 1253,
      "ꪎꪲ꪿ꪉ": 1254,
      "ꪎꪺꪒ": 1255,
      "ꪏꪾ꫁": 1256,
      "ꪏꪱꪒ": 1257,
      "ꪐ꫁ꪱꪣ": 1258,
      "ꪑꪮꪉ": 1259,
      "ꪑꪱꪣ": 1260,
      "ꪑ꪿ꪱꪥ": 1261,
      "ꪔꪱꪚ": 1262,
      "ꪔꪲꪚ": 1263,
      "ꪔꪴ꪿ꪀ": 1264,
      "ꪔꪳ꪿ꪉ": 1265,
      "ꪕ꪿ꪮꪥ": 1266,
      "ꪖꪱꪣ": 1267,
      "ꪖ꫁ꪺꪣ": 1268,
      "ꪘꪮꪙ": 1269,
      "ꪙꪴ꪿ꪉ": 1270,
      "ꪚꪺ": 1271,
      "ꪚꪮꪒ": 1272,
      "ꪚꪷ꫁": 1273,
      "ꪚ꫁ꪽ": 1274,
      "ꪚꪾ꪿": 1275,
      "ꪛꪰꪉ": 1276,
      "ꪛꪺꪀ": 1277,
      "ꪛꪩꪱꪒ": 1278,
      "ꪜꪱꪒ": 1279,
      "ꪜ꫁ꪽ": 1280,
      "ꪜꪴꪀ": 1281,
      "ꪜꪮꪣ": 1282,
      "ꪜꪴ꪿ꪀ": 1283,
      "ꪜꪸ꪿ꪫ": 1284,
      "ꪝꪱꪥ": 1285,
      "ꪝꪮꪀ": 1286,
      "ꪝꪸꪉ": 1287,
      "ꪝ꫁ꪱꪫ": 1288,
      "ꪠꪮꪣ": 1289,
      "ꪠ꫁ꪱꪉ": 1290,
      "ꪡꪱ": 1291,
      "ꪡꪸ": 1292,
      "ꪢꪲꪙ": 1293,
      "ꪢꪴ꪿": 1294,
      "ꪣꪴ꫁": 1295,
      "ꪣꪲ꫁": 1296,
      "ꪣꪸ꫁ꪙ": 1297,
      "ꪣꪴ꪿ꪙ": 1298,
      "ꪤꪲꪒ": 1299,
      "ꪤꪱꪒ": 1300,
      "ꪤ꫁ꪱꪙ": 1301,
      "ꪤ꪿ꪮꪙ": 1302,
      "ꪥꪸꪙ": 1303,
      "ꪥ꪿ꪱꪙ": 1304,
      "ꪨꪒ": 1305,
      "ꪨꪷ꪿": 1306,
      "ꪨꪱꪚ": 1307,
      "ꪨꪲ꪿": 1308,
      "ꪨꪲ꪿ꪉ": 1309,
      "ꪩꪷ": 1310,
      "ꪩꪺ": 1311,
      "ꪩ꪿ꪙ": 1312,
      "ꪩ꫁ꪱꪙ": 1313,
      "ꪫꪽ": 1314,
      "ꪬꪷ꫁": 1315,
      "ꪬꪸꪣ": 1316,
      "ꪭꪾ": 1317,
      "ꪭ꪿ꪱ": 1318,
      "ꪭꪮꪙ": 1319,
      "ꪭ꫁ꪮꪥ": 1320,
      "ꪭ꫁ꪱꪙ": 1321,
      "ꪭ꪿ꪮꪉ": 1322,
      "ꪮ꪿ꪱꪫ": 1323,
      "ꪮ꫁ꪱꪉ": 1324,
      "ꪮꪴ꫁ꪣ": 1325,
      "ꪮꪴ꪿ꪙ": 1326,
      "ꪯ꪿ꪱ": 1327,
      "ꪴ꫁ꪙ": 1328,
      "ꪵꪗ": 1329,
      "ꪵꪢ": 1330,
      "ꪵꪏꪩ": 1331,
      "ꪶꪐ": 1332,
      "ꪶꪘ": 1333,
      "ꪷ꫁ꪉ": 1334,
      "ꪸ꪿ꪣ": 1335,
      "ꪹꪮꪒ": 1336,
      "ꪹꪚ꫁": 1337,
      "ꪹꪚ꪿ꪣ": 1338,
      "ꪴ꪿ꪥ": 1339,
      "ꪵꪀꪙ": 1340,
      "ꪵꪀ꫁ꪣ": 1341,
      "ꪵꪀ꪿ꪫ": 1342,
      "ꪹꪎ꪿ꪉ": 1343,
      "ꪹꪀꪚ": 1344,
      "ꪹꪀ꪿ꪙ": 1345,
      "ꪹꪜꪥ": 1346,
      "ꪹꪣꪷꪉ": 1347,
      "ꪵꪣꪫ": 1348,
      "ꪵꪁ꫁": 1349,
      "ꪵꪁ꫁ꪀ": 1350,
      "ꪹꪔꪷꪒ": 1351,
      "ꪹꪕꪸ": 1352,
      "ꪵꪎ꪿": 1353,
      "ꪵꪒꪙ": 1354,
      "ꪵꪩꪉ": 1355,
      "ꪶꪄꪚ": 1356,
      "ꪵꪚꪀ": 1357,
      "ꪹꪯꪷꪥ": 1358,
      "ꪵꪠ꫁": 1359,
      "ꪶꪜ꪿ꪉ": 1360,
      "ꪶꪠ꪿ꪀ": 1361,
      "ꪹꪅꪷꪉ": 1362,
      "ꪵꪏꪉ": 1363,
      "ꪹꪛꪸꪒ": 1364,
      "ꪹꪡꪉ": 1365,
      "ꪶꪢꪒ": 1366,
      "ꪶꪢ꪿ꪙ": 1367,
      "ꪀ꫁ꪫꪱ": 1368,
      "ꪀꪤ꫁ꪮꪥ": 1369,
      "ꪶꪁꪩ꪿ꪙ": 1370,
      "ꪀꪳ": 1371,
      "ꪀꪮꪒ": 1372,
      "ꪀꪲ꪿": 1373,
      "ꪀ꪿ꪫ": 1374,
      "ꪀꪲ꫁": 1375,
      "ꪀꪲ꪿ꪙ": 1376,
      "ꪁꪣ": 1377,
      "ꪁꪳꪒ": 1378,
      "ꪁ꫁ꪮꪀ": 1379,
      "ꪄꪱꪚ": 1380,
      "ꪄ꫁ꪱꪫ": 1381,
      "ꪄ꪿ꪮꪥ": 1382,
      "ꪄ꫁ꪱꪣ": 1383,
      "ꪄꪳ꪿ꪙ": 1384,
      "ꪄ꪿ꪫꪱꪉ": 1385,
      "ꪅꪩ": 1386,
      "ꪅꪳ": 1387,
      "ꪅꪱꪀ": 1388,
      "ꪉꪲꪙ": 1389,
      "ꪉꪮꪣ": 1390,
      "ꪊꪱ": 1391,
      "ꪊꪷ": 1392,
      "ꪊꪴꪚ": 1393,
      "ꪊꪴꪉ": 1394,
      "ꪋ꫁ꪱꪙ": 1395,
      "ꪋꪮꪚ": 1396,
      "ꪋ꫁ꪮꪙ": 1397,
      "ꪋꪳ꪿ꪙ": 1398,
      "ꪎꪮꪀ": 1399,
      "ꪎꪲ꪿": 1400,
      "ꪎꪱꪣ": 1401,
      "ꪎꪮꪚ": 1402,
      "ꪎ꪿ꪮꪉ": 1403,
      "ꪎꪲꪉ": 1404,
      "ꪎ꪿ꪽ": 1405,
      "ꪎꪳ꪿": 1406,
      "ꪎꪸꪚ": 1407,
      "ꪎꪨꪱꪀ": 1408,
      "ꪏꪾ": 1409,
      "ꪏꪮꪀ": 1410,
      "ꪐꪲ꪿ꪉ": 1411,
      "ꪐꪴ꫁ꪉ": 1412,
      "ꪑꪱ": 1413,
      "ꪑꪮꪀ": 1414,
      "ꪑ꪿ꪽ": 1415,
      "ꪒ꪿ꪱ": 1416,
      "ꪒꪱꪉ": 1417,
      "ꪒꪸ꪿ꪉ": 1418,
      "ꪒꪴ꫁ꪉ": 1419,
      "ꪓ꫁ꪱꪙ": 1420,
      "ꪔ꪿ꪱꪫ": 1421,
      "ꪔꪴ꫁ꪥ": 1422,
      "ꪕꪙ": 1423,
      "ꪕꪱ": 1424,
      "ꪕꪱꪀ": 1425,
      "ꪕ꫁ꪱꪫ": 1426,
      "ꪕꪴꪚ": 1427,
      "ꪕꪳ꫁ꪙ": 1428,
      "ꪕꪳꪣ": 1429,
      "ꪖꪴ꪿ꪣ": 1430,
      "ꪙ꪿ꪱꪉ": 1431,
      "ꪙ꫁ꪱꪙ": 1432,
      "ꪚꪱ": 1433,
      "ꪚꪱꪥ": 1434,
      "ꪚꪰꪒ": 1435,
      "ꪚꪲꪉ": 1436,
      "ꪚ꫁ꪺꪙ": 1437,
      "ꪛꪱꪥ": 1438,
      "ꪛꪱꪙ": 1439,
      "ꪛꪺꪙ": 1440,
      "ꪝꪙ": 1441,
      "ꪝ꫁ꪱ": 1442,
      "ꪝꪺꪉ": 1443,
      "ꪝꪳ꫁ꪙ": 1444,
      "ꪠꪱꪒ": 1445,
      "ꪠ꫁ꪽ": 1446,
      "ꪡꪱꪉ": 1447,
      "ꪡꪱꪀ": 1448,
      "ꪡꪰꪀ": 1449,
      "ꪡꪱꪒ": 1450,
      "ꪡ꫁ꪱꪥ": 1451,
      "ꪢꪱꪥ": 1452,
      "ꪢꪱꪉ": 1453,
      "ꪣꪮꪥ": 1454,
      "ꪤꪱꪀ": 1455,
      "ꪤꪰꪀ": 1456,
      "ꪤ꫁ꪱꪫ": 1457,
      "ꪥꪱꪥ": 1458,
      "ꪥꪱꪒ": 1459,
      "ꪥꪰ꪿ꪉ": 1460,
      "ꪨꪱꪉ": 1461,
      "ꪨ꪿ꪱꪉ": 1462,
      "ꪩꪮꪀ": 1463,
      "ꪩꪴꪚ": 1464,
      "ꪩꪲ꫁ꪙ": 1465,
      "ꪩ꪿ꪱꪣ": 1466,
      "ꪪꪽ": 1467,
      "ꪪ꪿ꪱꪉ": 1468,
      "ꪫꪲ": 1469,
      "ꪫꪱꪀ": 1470,
      "ꪫꪲꪫ": 1471,
      "ꪬꪱꪫ": 1472,
      "ꪬꪮꪚ": 1473,
      "ꪬ꫁ꪱꪫ": 1474,
      "ꪬ꫁ꪱꪣ": 1475,
      "ꪭꪮꪣ": 1476,
      "ꪭꪴꪒ": 1477,
      "ꪭ꫁ꪱꪉ": 1478,
      "ꪮꪽ": 1479,
      "ꪮꪲꪒ": 1480,
      "ꪮꪴꪀ": 1481,
      "ꪯꪥ": 1482,
      "ꪵꪑ": 1483,
      "ꪷ꫁ꪀ": 1484,
      "ꪹꪗ": 1485,
      "ꪻꪝ": 1486,
      "ꪼꪔ꫁": 1487,
      "ꪹꪚꪸꪚ": 1488,
      "ꪶꪀꪒ": 1489,
      "ꪵꪀ꪿ꪀ": 1490,
      "ꪹꪎꪱ꫁": 1491,
      "ꪶꪁ꪿": 1492,
      "ꪶꪔꪙ": 1493,
      "ꪶꪔ꫁ꪣ": 1494,
      "ꪵꪄ꪿ꪉ": 1495,
      "ꪹꪁꪚ": 1496,
      "ꪹꪮꪷꪙ": 1497,
      "ꪵꪁꪉ": 1498,
      "ꪵꪁꪩꪒ": 1499,
      "ꪶꪚ꪿ꪀ": 1500,
      "ꪣꪳ꪿ꪙ": 1501,
      "ꪼꪜ꫁": 1502,
      "ꪵꪩ꫁": 1503,
      "ꪶꪄꪒ": 1504,
      "ꪶꪄ꫁": 1505,
      "ꪹꪬ꪿": 1506,
      "ꪶꪭꪉ": 1507,
      "ꪵꪜ꪿": 1508,
      "ꪹꪏꪷ": 1509,
      "ꪵꪠꪉ": 1510,
      "ꪵꪠ꫁ꪫ": 1511,
      "ꪵꪮ꪿ꪙ": 1512,
      "ꪹꪝꪷꪉ": 1513,
      "ꪶꪠꪉ": 1514,
      "ꪵꪕꪙ": 1515,
      "ꪁꪩꪮꪒ": 1516,
      "ꪹꪅꪷꪥ": 1517,
      "ꪵꪏꪒ": 1518,
      "ꪶꪊ꪿ꪣ": 1519,
      "ꪶꪨꪣ": 1520,
      "ꪹꪛꪸ": 1521,
      "ꪹꪤꪷꪙ": 1522,
      "ꪶꪝ꫁": 1523,
      "ꪹꪒꪷꪙ": 1524,
      "ꪵꪙꪙ": 1525,
      "ꪶꪋꪚ": 1526,
      "ꪶꪋꪣ": 1527,
      "ꪶꪡꪚ": 1528,
      "ꪼꪕ꫁": 1529,
      "ꪹꪁꪷꪣ": 1530,
      "ꪶꪒꪉ": 1531,
      "ꪶꪤ꪿ꪀ": 1532,
      "ꪀꪫꪱꪒ": 1533,
      "ꪻꪚ꫁": 1534,
      "ꪶꪅꪥ": 1535,
      "ꪵꪀꪫ꪿ꪉ": 1536,
      "ꪄꪫꪱꪀ": 1537,
      "ꪵꪅꪫꪙ": 1538,
      "ꪹꪈꪱ": 1539,
      "ꪻꪁ꪿": 1540,
      "ꪹꪯꪸꪩꪒ": 1541,
      "ꪀꪴ": 1542,
      "ꪀꪺ": 1543,
      "ꪀ꪿ꪱꪙ": 1544,
      "ꪀꪲꪚ": 1545,
      "ꪀꪸ꪿ꪫ": 1546,
      "ꪀꪴ꫁ꪉ": 1547,
      "ꪀ꪿ꪫꪱ": 1548,
      "ꪀꪺꪥ": 1549,
      "ꪁꪙ": 1550,
      "ꪁ꫁ꪱ": 1551,
      "ꪁꪮꪀ": 1552,
      "ꪁꪸꪙ": 1553,
      "ꪁ꪿ꪱꪉ": 1554,
      "ꪁ꫁ꪮꪥ": 1555,
      "ꪁ꫁ꪱꪥ": 1556,
      "ꪁ꫁ꪮꪉ": 1557,
      "ꪁ꪿ꪱꪙ": 1558,
      "ꪁꪴꪙ": 1559,
      "ꪁꪳꪚ": 1560,
      "ꪁ꪿ꪫꪱ": 1561,
      "ꪁꪥꪱꪚ": 1562,
      "ꪄꪺ": 1563,
      "ꪄꪲꪙ": 1564,
      "ꪄ꪿ꪱꪉ": 1565,
      "ꪄ꪿ꪱꪫ": 1566,
      "ꪄꪺꪒ": 1567,
      "ꪄꪫꪱ": 1568,
      "ꪄꪺꪚ": 1569,
      "ꪅꪱꪙ": 1570,
      "ꪅꪙꪰꪀ": 1571,
      "ꪉꪮꪙ": 1572,
      "ꪊ꫁ꪱꪥ": 1573,
      "ꪊ꪿ꪱꪥ": 1574,
      "ꪊꪲꪚ": 1575,
      "ꪊꪲ꪿ꪉ": 1576,
      "ꪊ꪿ꪱꪣ": 1577,
      "ꪊꪺꪚ": 1578,
      "ꪋꪴ": 1579,
      "ꪋꪽ": 1580,
      "ꪋꪰꪀ": 1581,
      "ꪋ꫁ꪽ": 1582,
      "ꪋꪴ꫁": 1583,
      "ꪋꪲꪉ": 1584,
      "ꪋꪴ꪿ꪣ": 1585,
      "ꪋꪴ꫁ꪀ": 1586,
      "ꪎꪨ": 1587,
      "ꪎꪽ": 1588,
      "ꪎ꪿ꪱ": 1589,
      "ꪎꪾꪚ": 1590,
      "ꪎ꪿ꪱꪫ": 1591,
      "ꪎꪰ꪿ꪉ": 1592,
      "ꪎꪴꪣ": 1593,
      "ꪎ꫁ꪱꪣ": 1594,
      "ꪎꪴꪉ": 1595,
      "ꪏꪮꪉ": 1596,
      "ꪏ꫁ꪮꪉ": 1597,
      "ꪐꪾ꫁": 1598,
      "ꪑꪲ": 1599,
      "ꪑꪮꪙ": 1600,
      "ꪒꪺ": 1601,
      "ꪒꪱꪚ": 1602,
      "ꪒꪰ꪿ꪉ": 1603,
      "ꪒꪰ꫁ꪉ": 1604,
      "ꪒ꪿ꪺꪙ": 1605,
      "ꪔꪘ": 1606,
      "ꪔꪱꪀ": 1607,
      "ꪔꪷ꫁": 1608,
      "ꪔꪴ꪿ꪣ": 1609,
      "ꪔ꪿ꪮꪀ": 1610,
      "ꪕꪮꪉ": 1611,
      "ꪕꪱꪚ": 1612,
      "ꪕꪰꪉ": 1613,
      "ꪕ꫁ꪱꪥ": 1614,
      "ꪕ꪿ꪮꪉ": 1615,
      "ꪕ꪿ꪱꪙ": 1616,
      "ꪕꪸ꪿ꪉ": 1617,
      "ꪖꪴ꪿": 1618,
      "ꪖ꪿ꪱꪉ": 1619,
      "ꪖꪰꪒ": 1620,
      "ꪖꪴꪀ": 1621,
      "ꪖꪴ꪿ꪀ": 1622,
      "ꪗꪴ": 1623,
      "ꪘꪺꪒ": 1624,
      "ꪘꪸꪫ": 1625,
      "ꪘꪳ꫁ꪉ": 1626,
      "ꪙꪾꪚ": 1627,
      "ꪙ꫁ꪮꪀ": 1628,
      "ꪚꪸꪙ": 1629,
      "ꪚꪰꪉ": 1630,
      "ꪚꪲ꫁": 1631,
      "ꪚ꪿ꪺꪉ": 1632,
      "ꪚꪸ꪿ꪙ": 1633,
      "ꪜꪴꪒ": 1634,
      "ꪜ꫁ꪱꪫ": 1635,
      "ꪜꪳꪙ": 1636,
      "ꪜꪺꪒ": 1637,
      "ꪝꪚ": 1638,
      "ꪝꪷ꫁": 1639,
      "ꪝ꪿ꪱꪥ": 1640,
      "ꪝꪩꪱꪣ": 1641,
      "ꪠꪮꪀ": 1642,
      "ꪠꪮꪙ": 1643,
      "ꪠꪴ꪿": 1644,
      "ꪠ꫁ꪱꪙ": 1645,
      "ꪠꪳꪒ": 1646,
      "ꪢꪷ": 1647,
      "ꪢ꫁ꪺ": 1648,
      "ꪢ꫁ꪱꪥ": 1649,
      "ꪢ꫁ꪱꪙ": 1650,
      "ꪢ꫁ꪮꪣ": 1651,
      "ꪢꪲ꪿ꪙ": 1652,
      "ꪣꪮꪙ": 1653,
      "ꪣꪱꪒ": 1654,
      "ꪣꪮꪒ": 1655,
      "ꪣꪰꪒ": 1656,
      "ꪣ꪿ꪺꪉ": 1657,
      "ꪤ꫁ꪱ": 1658,
      "ꪤꪮꪀ": 1659,
      "ꪤ꫁ꪮꪥ": 1660,
      "ꪤꪮꪒ": 1661,
      "ꪤꪱꪣ": 1662,
      "ꪤꪰꪒ": 1663,
      "ꪤ꫁ꪮꪙ": 1664,
      "ꪤꪳꪙ": 1665,
      "ꪤ꪿ꪽ": 1666,
      "ꪥ꫁ꪱ": 1667,
      "ꪥꪮꪣ": 1668,
      "ꪥꪳꪒ": 1669,
      "ꪥ꫁ꪮꪀ": 1670,
      "ꪨꪚ": 1671,
      "ꪨꪽ": 1672,
      "ꪨꪮꪙ": 1673,
      "ꪨ꫁ꪮꪥ": 1674,
      "ꪨ꫁ꪮꪙ": 1675,
      "ꪩꪉ": 1676,
      "ꪩꪮꪉ": 1677,
      "ꪩꪲꪒ": 1678,
      "ꪩꪱꪚ": 1679,
      "ꪩ꫁ꪱꪥ": 1680,
      "ꪩꪴ꫁": 1681,
      "ꪩ꪿ꪮꪉ": 1682,
      "ꪩꪲ꫁": 1683,
      "ꪩ꪿ꪱꪙ": 1684,
      "ꪩꪮꪥ": 1685,
      "ꪩꪴꪙ": 1686,
      "ꪩꪲꪫ": 1687,
      "ꪪꪱꪥ": 1688,
      "ꪪꪱꪉ": 1689,
      "ꪪ꪿ꪱꪙ": 1690,
      "ꪫꪱꪥ": 1691,
      "ꪫꪱꪙ": 1692,
      "ꪫꪱꪒ": 1693,
      "ꪫ꫁ꪽ": 1694,
      "ꪫ꪿ꪮꪉ": 1695,
      "ꪬꪉ": 1696,
      "ꪬꪾ": 1697,
      "ꪬꪮꪀ": 1698,
      "ꪬ꪿ꪱꪫ": 1699,
      "ꪬꪴꪚ": 1700,
      "ꪬ꫁ꪮꪣ": 1701,
      "ꪭꪷ꪿": 1702,
      "ꪭꪲꪒ": 1703,
      "ꪭꪱꪫ": 1704,
      "ꪭꪸꪉ": 1705,
      "ꪭ꫁ꪱꪫ": 1706,
      "ꪭꪳꪙ": 1707,
      "ꪭꪳ꫁ꪙ": 1708,
      "ꪭꪲ꫁ꪫ": 1709,
      "ꪭ꪿ꪺꪣ": 1710,
      "ꪮꪲ": 1711,
      "ꪮꪾꪚ": 1712,
      "ꪮꪲꪉ": 1713,
      "ꪮ꪿ꪽ": 1714,
      "ꪮꪸꪫ": 1715,
      "ꪯꪩ": 1716,
      "ꪯꪱꪥ": 1717,
      "ꪯꪳ꪿": 1718,
      "ꪵꪛ": 1719,
      "ꪹꪮꪙ": 1720,
      "ꪻꪥ": 1721,
      "ꪼꪮ": 1722,
      "ꪼꪋ꫁": 1723,
      "ꪹꪄꪱ꪿": 1724,
      "ꪲ꪿ꪣ": 1725,
      "ꪶꪎꪒ": 1726,
      "ꪹꪀꪸꪫ": 1727,
      "ꪹꪀꪸ꪿ꪀ": 1728,
      "ꪶꪔ꪿ꪉ": 1729,
      "ꪹꪜꪸꪒ": 1730,
      "ꪵꪄ꫁ꪣ": 1731,
      "ꪹꪋꪉ": 1732,
      "ꪶꪩ꪿": 1733,
      "ꪹꪁꪸ꪿ꪉ": 1734,
      "ꪹꪁꪷꪉ": 1735,
      "ꪹꪁꪝꪚ": 1736,
      "ꪹꪨ꪿ꪥ": 1737,
      "ꪹꪮ꫁ꪱ": 1738,
      "ꪹꪩꪸ": 1739,
      "ꪹꪩꪸꪙ": 1740,
      "ꪶꪚ꪿ꪙ": 1741,
      "ꪶꪚ꪿ꪣ": 1742,
      "ꪹꪕꪸꪒ": 1743,
      "ꪵꪎꪒ": 1744,
      "ꪵꪎ꪿ꪉ": 1745,
      "ꪵꪎ꫁ꪙ": 1746,
      "ꪜꪲꪀ": 1747,
      "ꪵꪒ꪿ꪙ": 1748,
      "ꪵꪩ꫁ꪉ": 1749,
      "ꪹꪬꪱ꪿": 1750,
      "ꪶꪭꪥ": 1751,
      "ꪶꪭ꫁ꪀ": 1752,
      "ꪹꪏꪷ꫁": 1753,
      "ꪹꪏ꫁ꪥ": 1754,
      "ꪵꪠꪙ": 1755,
      "ꪵꪠ꪿": 1756,
      "ꪵꪮ꫁ꪫ": 1757,
      "ꪵꪮ꪿ꪫ": 1758,
      "ꪎꪳꪉ": 1759,
      "ꪹꪙꪉ": 1760,
      "ꪹꪝ꪿": 1761,
      "ꪹꪝꪷ꪿ꪉ": 1762,
      "ꪏꪩꪰꪀ": 1763,
      "ꪶꪜꪀ": 1764,
      "ꪶꪠ꪿": 1765,
      "ꪹꪖ꫁ꪱ": 1766,
      "ꪹꪖꪷ꪿ꪀ": 1767,
      "ꪵꪝꪀ": 1768,
      "ꪵꪝꪙ": 1769,
      "ꪵꪬꪀ": 1770,
      "ꪶꪙꪣ": 1771,
      "ꪁꪩꪷ꪿": 1772,
      "ꪁꪩꪱꪒ": 1773,
      "ꪹꪢꪉ": 1774,
      "ꪹꪅꪱ": 1775,
      "ꪶꪬ꪿ꪉ": 1776,
      "ꪶꪬ꫁ꪣ": 1777,
      "ꪹꪘ꪿ꪥ": 1778,
      "ꪵꪊꪀ": 1779,
      "ꪶꪨꪚ": 1780,
      "ꪶꪨ꫁ꪥ": 1781,
      "ꪶꪝ꫁ꪥ": 1782,
      "ꪹꪒꪷꪣ": 1783,
      "ꪼꪡ꪿": 1784,
      "ꪵꪙ꪿ꪫ": 1785,
      "ꪶꪏꪙ": 1786,
      "ꪶꪏꪣ": 1787,
      "ꪶꪡ꪿": 1788,
      "ꪼꪕ꪿": 1789,
      "ꪹꪁꪷꪕꪙ": 1790,
      "ꪶꪒꪙ": 1791,
      "ꪵꪘ꫁ꪙ": 1792,
      "ꪵꪪꪙ": 1793,
      "ꪵꪖꪙ": 1794,
      "ꪹꪚꪷꪬꪉ": 1795,
      "ꪼꪚ꫁": 1796,
      "ꪹꪁꪸꪩ꪿ꪙ": 1797,
      "ꪼꪬ꪿": 1798,
      "ꪶꪯꪥꪒ": 1799,
      "ꪼꪠ꪿": 1800,
      "ꪼꪔ꪿": 1801,
      "ꪀꪱꪙ": 1802,
      "ꪀꪰꪉ": 1803,
      "ꪀ꫁ꪺ": 1804,
      "ꪀ꫁ꪱꪉ": 1805,
      "ꪀꪰ꫁ꪉ": 1806,
      "ꪀꪲ꪿ꪉ": 1807,
      "ꪁꪱꪫ": 1808,
      "ꪁ꪿ꪱꪥ": 1809,
      "ꪁꪸꪫ": 1810,
      "ꪁꪳ꪿ꪙ": 1811,
      "ꪄꪾ": 1812,
      "ꪄ꪿": 1813,
      "ꪄ꫁ꪺ": 1814,
      "ꪄꪷ꫁": 1815,
      "ꪄꪮꪚ": 1816,
      "ꪄꪰ꫁ꪉ": 1817,
      "ꪄꪲ꪿ꪉ": 1818,
      "ꪅꪴꪒ": 1819,
      "ꪈꪽ": 1820,
      "ꪈ꫁ꪉ": 1821,
      "ꪉꪷ": 1822,
      "ꪉ꪿ꪱ": 1823,
      "ꪉꪱꪉ": 1824,
      "ꪉꪰꪀ": 1825,
      "ꪉ꫁ꪫ": 1826,
      "ꪉꪰꪒ": 1827,
      "ꪉꪺꪙ": 1828,
      "ꪉ꪿ꪱꪣ": 1829,
      "ꪉꪫꪱ": 1830,
      "ꪊ꫁ꪱ": 1831,
      "ꪊꪷ꪿": 1832,
      "ꪊꪮꪀ": 1833,
      "ꪊꪴꪀ": 1834,
      "ꪊ꫁ꪱꪫ": 1835,
      "ꪊꪸꪣ": 1836,
      "ꪊꪲꪣ": 1837,
      "ꪊꪲꪀ": 1838,
      "ꪊꪲ꫁ꪣ": 1839,
      "ꪋꪺ": 1840,
      "ꪋꪴ꪿": 1841,
      "ꪋꪰꪉ": 1842,
      "ꪋꪲ꪿": 1843,
      "ꪋꪸꪉ": 1844,
      "ꪋ꪿ꪺꪉ": 1845,
      "ꪎ꫁ꪱꪫ": 1846,
      "ꪎꪴꪙ": 1847,
      "ꪎ꪿ꪺꪙ": 1848,
      "ꪏꪱ": 1849,
      "ꪏꪴ": 1850,
      "ꪏꪱꪥ": 1851,
      "ꪏꪮꪙ": 1852,
      "ꪏꪲꪒ": 1853,
      "ꪏ꫁ꪮꪙ": 1854,
      "ꪏꪴꪒ": 1855,
      "ꪏꪺꪙ": 1856,
      "ꪏ꪿ꪽ": 1857,
      "ꪐꪽ": 1858,
      "ꪐ꫁ꪽ": 1859,
      "ꪑꪴ": 1860,
      "ꪑꪷ꪿": 1861,
      "ꪑꪱꪀ": 1862,
      "ꪑꪰꪀ": 1863,
      "ꪑꪱꪒ": 1864,
      "ꪑ꪿ꪮꪙ": 1865,
      "ꪑꪾ꪿": 1866,
      "ꪑ꪿ꪱꪣ": 1867,
      "ꪒ꫁ꪱ": 1868,
      "ꪒꪲ꫁": 1869,
      "ꪒꪳ꪿ꪀ": 1870,
      "ꪓꪱꪫ": 1871,
      "ꪔꪰꪀ": 1872,
      "ꪔꪱꪙ": 1873,
      "ꪔꪱꪒ": 1874,
      "ꪔꪾꪚ": 1875,
      "ꪔꪱꪫ": 1876,
      "ꪔ꫁ꪱꪙ": 1877,
      "ꪔ꪿ꪱꪙ": 1878,
      "ꪔꪸꪀ": 1879,
      "ꪔꪴ꪿ꪉ": 1880,
      "ꪕꪴ": 1881,
      "ꪕꪽ": 1882,
      "ꪕꪱꪥ": 1883,
      "ꪕꪮꪀ": 1884,
      "ꪕ꫁ꪮꪙ": 1885,
      "ꪖꪴ": 1886,
      "ꪖꪰ꪿ꪉ": 1887,
      "ꪖ꪿ꪱꪙ": 1888,
      "ꪖ꫁ꪺꪙ": 1889,
      "ꪘ꪿ꪮꪉ": 1890,
      "ꪘꪲꪚ": 1891,
      "ꪘ꪿ꪮꪣ": 1892,
      "ꪙꪲ": 1893,
      "ꪙꪲꪙ": 1894,
      "ꪙꪱꪚ": 1895,
      "ꪚꪬ": 1896,
      "ꪚ꫁ꪱꪉ": 1897,
      "ꪚꪳꪙ": 1898,
      "ꪚꪸ꫁": 1899,
      "ꪚꪳꪒ": 1900,
      "ꪚ꪿ꪮꪣ": 1901,
      "ꪛꪱ": 1902,
      "ꪛꪱꪚ": 1903,
      "ꪛꪲꪉ": 1904,
      "ꪜꪷ": 1905,
      "ꪜꪾꪚ": 1906,
      "ꪜꪮꪒ": 1907,
      "ꪜ꫁ꪱꪥ": 1908,
      "ꪜ꪿ꪱꪫ": 1909,
      "ꪜ꪿ꪱꪙ": 1910,
      "ꪜ꪿ꪮꪥ": 1911,
      "ꪜꪸ꪿ꪉ": 1912,
      "ꪜꪴ꫁ꪣ": 1913,
      "ꪜꪺꪀ": 1914,
      "ꪝꪩ": 1915,
      "ꪝ꫁ꪮꪉ": 1916,
      "ꪝꪳꪒ": 1917,
      "ꪠꪷ꪿": 1918,
      "ꪠꪲꪙ": 1919,
      "ꪠꪰꪉ": 1920,
      "ꪠꪮꪥ": 1921,
      "ꪠꪴ꪿ꪀ": 1922,
      "ꪡꪲ": 1923,
      "ꪡꪴ": 1924,
      "ꪡꪾꪚ": 1925,
      "ꪡ꪿ꪮꪉ": 1926,
      "ꪡ꫁ꪮꪙ": 1927,
      "ꪡ꫁ꪱꪫ": 1928,
      "ꪡꪺꪀ": 1929,
      "ꪡꪴ꫁ꪉ": 1930,
      "ꪢꪮꪙ": 1931,
      "ꪢꪾ꫁": 1932,
      "ꪢ꪿ꪽ": 1933,
      "ꪢ꫁ꪱꪣ": 1934,
      "ꪢꪳ꪿ꪙ": 1935,
      "ꪢꪳ꪿ꪀ": 1936,
      "ꪣꪷ": 1937,
      "ꪣꪮꪀ": 1938,
      "ꪣꪱꪚ": 1939,
      "ꪤ꫁ꪮꪉ": 1940,
      "ꪤꪸꪉ": 1941,
      "ꪤ꫁ꪱꪉ": 1942,
      "ꪥꪒ": 1943,
      "ꪥꪱꪙ": 1944,
      "ꪥ꪿ꪺ": 1945,
      "ꪥ꫁ꪮꪥ": 1946,
      "ꪥꪱꪫ": 1947,
      "ꪥꪴꪚ": 1948,
      "ꪨ꪿ꪙ": 1949,
      "ꪨꪱꪣ": 1950,
      "ꪨꪴꪚ": 1951,
      "ꪨꪲ꪿ꪫ": 1952,
      "ꪩꪚ": 1953,
      "ꪩꪱꪙ": 1954,
      "ꪩꪱꪫ": 1955,
      "ꪩꪸꪉ": 1956,
      "ꪩꪾ꪿": 1957,
      "ꪩ꫁ꪮꪣ": 1958,
      "ꪩꪸꪚ": 1959,
      "ꪩꪲ꫁ꪉ": 1960,
      "ꪪ꫁ꪱ": 1961,
      "ꪫꪷ꪿": 1962,
      "ꪫꪮꪙ": 1963,
      "ꪫꪾ꫁": 1964,
      "ꪫꪰꪉ": 1965,
      "ꪫꪳꪒ": 1966,
      "ꪬꪨ": 1967,
      "ꪬꪱꪒ": 1968,
      "ꪬ꫁ꪮꪥ": 1969,
      "ꪬ꫁ꪱꪙ": 1970,
      "ꪬ꪿ꪮꪙ": 1971,
      "ꪬꪲꪚ": 1972,
      "ꪬꪲ꪿ꪉ": 1973,
      "ꪬ꫁ꪺꪥ": 1974,
      "ꪬ꪿ꪺꪙ": 1975,
      "ꪭꪷ": 1976,
      "ꪭꪱꪙ": 1977,
      "ꪭꪮꪀ": 1978,
      "ꪭꪸꪙ": 1979,
      "ꪭꪾꪚ": 1980,
      "ꪭꪮꪚ": 1981,
      "ꪭ꫁ꪽ": 1982,
      "ꪭꪰ꪿ꪉ": 1983,
      "ꪭꪸ꪿": 1984,
      "ꪮꪷ": 1985,
      "ꪮꪷ꫁": 1986,
      "ꪮ꫁ꪺꪥ": 1987,
      "ꪮ꫁ꪺꪙ": 1988,
      "ꪮꪴ꫁ꪥ": 1989,
      "ꪯꪲ": 1990,
      "ꪲ꫁ꪀ": 1991,
      "ꪶꪮꪣ": 1992,
      "ꪶꪬ꫁": 1993,
      "ꪻꪄ꪿": 1994,
      "ꪼꪋ": 1995,
      "ꪼꪤ": 1996,
      "ꪹꪚꪷꪙ": 1997,
      "ꪹꪚꪷꪒ": 1998,
      "꪿ꪺꪀ": 1999,
      "꫁ꪫꪱꪉ": 2000,
      "ꪶꪀ꪿ꪙ": 2001,
      "ꪶꪀ꪿ꪥ": 2002,
      "ꪹꪭꪒ": 2003,
      "ꪹꪭꪱ꫁": 2004,
      "ꪹꪄ꫁ꪉ": 2005,
      "ꪵꪀ꪿ꪣ": 2006,
      "ꪶꪎꪉ": 2007,
      "ꪹꪀ꫁ꪱ": 2008,
      "ꪹꪀꪱ꪿": 2009,
      "ꪹꪀꪷꪙ": 2010,
      "ꪹꪜꪀ": 2011,
      "ꪹꪋ꪿": 2012,
      "ꪶꪩꪥ": 2013,
      "ꪶꪩ꫁ꪀ": 2014,
      "ꪹꪣꪸꪒ": 2015,
      "ꪹꪁꪸ꫁": 2016,
      "ꪹꪨ꫁ꪣ": 2017,
      "ꪹꪨ꪿ꪣ": 2018,
      "ꪵꪣ꫁ꪙ": 2019,
      "ꪹꪥꪉ": 2020,
      "ꪹꪩꪸꪣ": 2021,
      "ꪵꪁꪒ": 2022,
      "ꪵꪁꪙ": 2023,
      "ꪵꪁꪣ": 2024,
      "ꪵꪁ꪿": 2025,
      "ꪵꪭ꫁ꪉ": 2026,
      "ꪹꪔ꫁ꪱ": 2027,
      "ꪹꪔ꪿ꪉ": 2028,
      "ꪹꪔꪸꪉ": 2029,
      "ꪹꪔꪸ꫁ꪙ": 2030,
      "ꪬꪺꪒ": 2031,
      "ꪹꪕꪸꪙ": 2032,
      "ꪹꪕꪷꪚ": 2033,
      "ꪵꪎ꫁": 2034,
      "ꪶꪕꪒ": 2035,
      "ꪶꪕꪚ": 2036,
      "ꪵꪩꪚ": 2037,
      "ꪶꪄ꪿ꪣ": 2038,
      "ꪶꪄꪨꪀ": 2039,
      "ꪶꪭꪚ": 2040,
      "ꪵꪚ꫁": 2041,
      "ꪵꪚ꪿ꪉ": 2042,
      "ꪵꪚ꫁ꪙ": 2043,
      "ꪹꪠꪀ": 2044,
      "ꪹꪠꪱ": 2045,
      "ꪹꪠꪱ꪿": 2046,
      "ꪹꪠꪷ꪿ꪥ": 2047,
      "ꪹꪊꪱ꫁": 2048,
      "ꪹꪯ꫁ꪀ": 2049,
      "ꪵꪮ꪿ꪉ": 2050,
      "ꪵꪮ꫁ꪉ": 2051,
      "ꪹꪫꪸ": 2052,
      "ꪹꪫ꫁ꪱ": 2053,
      "ꪹꪫꪷꪒ": 2054,
      "ꪹꪫꪷ꪿ꪙ": 2055,
      "ꪹꪉ꪿ꪙ": 2056,
      "ꪹꪙꪷ꫁": 2057,
      "ꪹꪝ꫁": 2058,
      "ꪹꪖꪷꪙ": 2059,
      "ꪵꪕꪉ": 2060,
      "ꪵꪕꪒ": 2061,
      "ꪶꪮ꪿": 2062,
      "ꪹꪢꪥ": 2063,
      "ꪵꪏꪀ": 2064,
      "ꪶꪬꪙ": 2065,
      "ꪶꪬꪣ": 2066,
      "ꪹꪡꪥ": 2067,
      "ꪶꪝꪉ": 2068,
      "ꪶꪯꪩꪒ": 2069,
      "ꪶꪋ꫁ꪀ": 2070,
      "ꪶꪡꪉ": 2071,
      "ꪶꪖꪥ": 2072,
      "ꪶꪛꪒ": 2073,
      "ꪹꪁꪷ꫁ꪙ": 2074,
      "ꪶꪒꪥ": 2075,
      "ꪶꪥꪉ": 2076,
      "ꪀ꫁ꪫꪱꪙ": 2077,
      "ꪶꪉꪣ": 2078,
      "ꪵꪥꪚ": 2079,
      "ꪹꪐ꫁": 2080,
      "ꪹꪐꪸꪙ": 2081,
      "ꪶꪑ꪿": 2082,
      "ꪶꪑ꫁ꪀ": 2083,
      "ꪶꪁꪩ꫁ꪀ": 2084,
      "ꪵꪖꪫ": 2085,
      "ꪻꪠ꪿": 2086,
      "ꪼꪪ꫁": 2087,
      "ꪼꪝ꪿": 2088,
      "ꪵꪅꪫꪀ": 2089,
      "ꪵꪁꪫ꫁ꪉ": 2090,
      "ꪻꪝ꫁": 2091,
      "ꪶꪅꪥ꫁ꪀ": 2092,
      "ꪁꪙ꪿ꪮꪉ": 2093,
      "ꪀꪸ": 2094,
      "ꪀꪾ꫁": 2095,
      "ꪀꪰ꪿ꪉ": 2096,
      "ꪀꪴ꪿ꪙ": 2097,
      "ꪀ꪿ꪮꪣ": 2098,
      "ꪀꪺꪀ": 2099,
      "ꪀꪳꪣ": 2100,
      "ꪀꪫꪱꪉ": 2101,
      "ꪀꪚꪰꪀ": 2102,
      "ꪁꪱꪀ": 2103,
      "ꪁ꪿ꪮꪙ": 2104,
      "ꪁꪴꪀ": 2105,
      "ꪁꪴꪒ": 2106,
      "ꪁꪴꪚ": 2107,
      "ꪁꪴ꫁ꪀ": 2108,
      "ꪁꪕꪰ꪿ꪉ": 2109,
      "ꪄꪺꪉ": 2110,
      "ꪄ꫁ꪱꪉ": 2111,
      "ꪄꪸ꪿": 2112,
      "ꪄꪺꪥ": 2113,
      "ꪄ꪿ꪺꪀ": 2114,
      "ꪅ꫁ꪱ": 2115,
      "ꪅꪱꪉ": 2116,
      "ꪅꪱꪒ": 2117,
      "ꪅꪴꪙ": 2118,
      "ꪅ꪿ꪮꪣ": 2119,
      "ꪅꪳ꪿ꪉ": 2120,
      "ꪈ꪿ꪮꪥ": 2121,
      "ꪈꪸ꫁": 2122,
      "ꪉ꫁ꪱ": 2123,
      "ꪉꪮꪀ": 2124,
      "ꪉꪺꪉ": 2125,
      "ꪉꪸ꫁": 2126,
      "ꪉ꪿ꪫꪱꪉ": 2127,
      "ꪊꪨ": 2128,
      "ꪊꪱꪥ": 2129,
      "ꪊꪮꪉ": 2130,
      "ꪊꪴ꪿": 2131,
      "ꪊꪮꪚ": 2132,
      "ꪊ꫁ꪮꪙ": 2133,
      "ꪊꪺꪙ": 2134,
      "ꪊꪮꪥ": 2135,
      "ꪊ꫁ꪮꪣ": 2136,
      "ꪊꪳꪒ": 2137,
      "ꪊꪴ꫁ꪣ": 2138,
      "ꪊꪳ꪿ꪉ": 2139,
      "ꪋꪾ": 2140,
      "ꪋꪮꪀ": 2141,
      "ꪋꪱꪒ": 2142,
      "ꪋꪱꪫ": 2143,
      "ꪋ꪿ꪮꪉ": 2144,
      "ꪋ꪿ꪱꪫ": 2145,
      "ꪋꪺꪉ": 2146,
      "ꪋ꫁ꪱꪉ": 2147,
      "ꪋꪴꪚ": 2148,
      "ꪋꪳꪣ": 2149,
      "ꪋꪳ꫁": 2150,
      "ꪎꪲꪙ": 2151,
      "ꪎꪱꪚ": 2152,
      "ꪎ꫁ꪱꪙ": 2153,
      "ꪎ꪿ꪮꪙ": 2154,
      "ꪎ꫁ꪮꪣ": 2155,
      "ꪎꪸ꫁ꪙ": 2156,
      "ꪎꪺꪥ": 2157,
      "ꪏ꫁ꪱ": 2158,
      "ꪏꪱꪀ": 2159,
      "ꪏꪰꪀ": 2160,
      "ꪏꪰꪒ": 2161,
      "ꪏꪳꪙ": 2162,
      "ꪏꪮꪥ": 2163,
      "ꪏꪰ꫁ꪉ": 2164,
      "ꪏꪺꪀ": 2165,
      "ꪐꪱꪚ": 2166,
      "ꪐ꫁ꪱꪫ": 2167,
      "ꪐꪾ꪿": 2168,
      "ꪐꪴ꫁ꪣ": 2169,
      "ꪐꪴ꪿ꪀ": 2170,
      "ꪑ꫁ꪮꪉ": 2171,
      "ꪑꪮꪚ": 2172,
      "ꪑ꫁ꪽ": 2173,
      "ꪑꪺꪙ": 2174,
      "ꪑꪲꪚ": 2175,
      "ꪑꪴꪉ": 2176,
      "ꪑꪺꪀ": 2177,
      "ꪒꪮꪀ": 2178,
      "ꪒ꫁ꪮꪥ": 2179,
      "ꪒ꪿ꪮꪉ": 2180,
      "ꪒ꫁ꪱꪉ": 2181,
      "ꪒꪮꪥ": 2182,
      "ꪒꪸ꫁ꪙ": 2183,
      "ꪒ꫁ꪱꪣ": 2184,
      "ꪒꪴ꪿ꪉ": 2185,
      "ꪔꪲ": 2186,
      "ꪔꪮꪉ": 2187,
      "ꪔꪮꪙ": 2188,
      "ꪔꪸꪙ": 2189,
      "ꪔꪲ꪿": 2190,
      "ꪔ꪿ꪮꪉ": 2191,
      "ꪔ꫁ꪱꪉ": 2192,
      "ꪔꪲ꫁ꪫ": 2193,
      "ꪔ꪿ꪮꪣ": 2194,
      "ꪔꪸ꪿ꪙ": 2195,
      "ꪔꪳꪚ": 2196,
      "ꪕꪷ": 2197,
      "ꪕꪱꪫ": 2198,
      "ꪕꪲ꪿": 2199,
      "ꪕꪴ꫁": 2200,
      "ꪕꪮꪥ": 2201,
      "ꪕꪴ꪿ꪣ": 2202,
      "ꪕꪴ꪿ꪉ": 2203,
      "ꪖꪺ": 2204,
      "ꪖꪱꪉ": 2205,
      "ꪖꪮꪉ": 2206,
      "ꪖ꪿ꪱꪫ": 2207,
      "ꪖꪺꪉ": 2208,
      "ꪖ꪿ꪱꪥ": 2209,
      "ꪖ꪿ꪮꪥ": 2210,
      "ꪖꪲꪚ": 2211,
      "ꪖꪲꪫ": 2212,
      "ꪖꪲꪀ": 2213,
      "ꪗꪲ꫁": 2214,
      "ꪗꪴꪉ": 2215,
      "ꪗ꪿ꪱꪣ": 2216,
      "ꪘ꪿": 2217,
      "ꪘ꪿ꪱꪉ": 2218,
      "ꪘꪸꪉ": 2219,
      "ꪘꪲ꫁": 2220,
      "ꪘ꪿ꪱꪥ": 2221,
      "ꪘꪸ꫁ꪉ": 2222,
      "ꪘ꪿ꪺꪥ": 2223,
      "ꪘꪳ꫁ꪣ": 2224,
      "ꪙꪾ": 2225,
      "ꪙꪸꪙ": 2226,
      "ꪙꪺꪒ": 2227,
      "ꪚ꪿": 2228,
      "ꪚꪾꪚ": 2229,
      "ꪚꪮꪣ": 2230,
      "ꪚ꪿ꪮꪥ": 2231,
      "ꪚꪲꪚ": 2232,
      "ꪚꪸ꫁ꪙ": 2233,
      "ꪚꪴ꫁ꪣ": 2234,
      "ꪚ꫁ꪱꪣ": 2235,
      "ꪚꪨꪴꪚ": 2236,
      "ꪛ꪿ꪮꪥ": 2237,
      "ꪛꪺꪒ": 2238,
      "ꪛ꫁ꪱꪣ": 2239,
      "ꪛ꫁ꪺꪥ": 2240,
      "ꪛꪴ꪿ꪣ": 2241,
      "ꪛꪳ꫁ꪀ": 2242,
      "ꪜꪸ": 2243,
      "ꪜꪱꪫ": 2244,
      "ꪜ꫁ꪮꪉ": 2245,
      "ꪜꪲ꫁": 2246,
      "ꪜ꪿ꪱꪥ": 2247,
      "ꪜ꪿ꪽ": 2248,
      "ꪜꪳꪒ": 2249,
      "ꪜ꪿ꪺꪥ": 2250,
      "ꪜ꪿ꪮꪣ": 2251,
      "ꪜ꪿ꪮꪀ": 2252,
      "ꪜꪳ꫁ꪉ": 2253,
      "ꪝꪳ": 2254,
      "ꪝꪺ": 2255,
      "ꪝꪰꪀ": 2256,
      "ꪝꪱꪚ": 2257,
      "ꪝꪰꪉ": 2258,
      "ꪝ꫁ꪺ": 2259,
      "ꪝꪴꪀ": 2260,
      "ꪝꪺꪙ": 2261,
      "ꪝꪴꪚ": 2262,
      "ꪠꪱꪀ": 2263,
      "ꪠ꪿ꪱꪉ": 2264,
      "ꪠꪲ꪿": 2265,
      "ꪠ꪿ꪱꪫ": 2266,
      "ꪠꪲ꪿ꪫ": 2267,
      "ꪡꪱꪙ": 2268,
      "ꪡꪮꪒ": 2269,
      "ꪡꪴꪙ": 2270,
      "ꪡꪴꪣ": 2271,
      "ꪡꪳꪒ": 2272,
      "ꪡꪴ꫁ꪀ": 2273,
      "ꪢ꪿ꪱꪙ": 2274,
      "ꪣꪱꪀ": 2275,
      "ꪣ꫁ꪺ": 2276,
      "ꪣ꫁ꪱꪙ": 2277,
      "ꪣ꪿ꪮꪉ": 2278,
      "ꪣꪴꪒ": 2279,
      "ꪣꪴꪙ": 2280,
      "ꪣꪲ꫁ꪙ": 2281,
      "ꪣ꪿ꪱꪣ": 2282,
      "ꪣ꫁ꪺꪙ": 2283,
      "ꪤꪱꪥ": 2284,
      "ꪤꪮꪣ": 2285,
      "ꪤꪲꪚ": 2286,
      "ꪥꪾ": 2287,
      "ꪥꪰꪀ": 2288,
      "ꪥ꫁ꪮꪙ": 2289,
      "ꪥꪮꪥ": 2290,
      "ꪥ꫁ꪺꪥ": 2291,
      "ꪨꪱꪒ": 2292,
      "ꪨꪮꪚ": 2293,
      "ꪩꪣ": 2294,
      "ꪩ꫁ꪮꪥ": 2295,
      "ꪩꪰꪉ": 2296,
      "ꪩꪮꪒ": 2297,
      "ꪩꪷ꫁": 2298,
      "ꪩ꫁ꪮꪉ": 2299,
      "ꪩ꫁ꪱꪣ": 2300,
      "ꪩꪳ꪿ꪙ": 2301,
      "ꪩꪳꪚ": 2302,
      "ꪪꪱ": 2303,
      "ꪪꪲ": 2304,
      "ꪪꪲꪒ": 2305,
      "ꪫꪰꪀ": 2306,
      "ꪫꪾꪚ": 2307,
      "ꪫꪮꪚ": 2308,
      "ꪫꪲ꪿ꪉ": 2309,
      "ꪬꪱꪀ": 2310,
      "ꪬꪮꪙ": 2311,
      "ꪬ꫁ꪱꪉ": 2312,
      "ꪬ꪿ꪱꪙ": 2313,
      "ꪬꪳꪙ": 2314,
      "ꪬ꪿ꪺꪉ": 2315,
      "ꪬ꪿ꪮꪣ": 2316,
      "ꪬ꪿ꪱꪣ": 2317,
      "ꪭ꫁": 2318,
      "ꪭꪺꪙ": 2319,
      "ꪭꪮꪥ": 2320,
      "ꪭꪸ꫁": 2321,
      "ꪭꪸꪫ": 2322,
      "ꪭ꫁ꪮꪀ": 2323,
      "ꪭꪫꪱ": 2324,
      "ꪭꪳ꫁": 2325,
      "ꪮꪾ": 2326,
      "ꪮꪰꪀ": 2327,
      "ꪮꪮꪒ": 2328,
      "ꪮꪱꪣ": 2329,
      "ꪮꪮꪥ": 2330,
      "ꪮꪳ꪿": 2331,
      "ꪮꪸ꫁ꪉ": 2332,
      "ꪮꪲ꫁ꪫ": 2333,
      "ꪮꪳ꪿ꪙ": 2334,
      "ꪮꪺꪀ": 2335,
      "ꪮꪳ꪿ꪉ": 2336,
      "ꪮꪸ꪿ꪫ": 2337,
      "ꪯꪱꪚ": 2338,
      "ꪯꪱꪫ": 2339,
      "ꪯꪱꪣ": 2340,
      "ꪯꪴ꫁": 2341,
      "ꪯꪲ꫁": 2342,
      "ꪵꪐ꪿": 2343,
      "ꪶꪏꪩ": 2344,
      "ꪻꪙ": 2345,
      "ꪼꪈ": 2346,
      "ꪼꪊ": 2347,
      "ꪶꪀꪥ": 2348,
      "ꪹꪭꪀ": 2349,
      "ꪹꪭꪉ": 2350,
      "ꪹꪭ꫁ꪙ": 2351,
      "ꪹꪄ꪿": 2352,
      "ꪹꪄꪸꪣ": 2353,
      "ꪹꪄꪷ꪿ꪙ": 2354,
      "ꪵꪀꪒ": 2355,
      "ꪹꪎ꫁ꪱ": 2356,
      "ꪹꪎꪸ꪿": 2357,
      "ꪶꪁꪩꪒ": 2358,
      "ꪶꪎ꫁": 2359,
      "ꪹꪀꪱ": 2360,
      "ꪹꪀ꪿ꪀ": 2361,
      "ꪹꪀ꫁ꪣ": 2362,
      "ꪹꪀꪱ꫁": 2363,
      "ꪹꪀꪷꪒ": 2364,
      "ꪹꪀꪷꪚ": 2365,
      "ꪹꪀꪷ꪿ꪙ": 2366,
      "ꪹꪜꪉ": 2367,
      "ꪹꪜꪸ꪿ꪉ": 2368,
      "ꪹꪜꪷ꪿ꪙ": 2369,
      "ꪹꪜꪷꪀ": 2370,
      "ꪵꪄ꫁": 2371,
      "ꪹꪋꪙ": 2372,
      "ꪶꪩꪚ": 2373,
      "ꪹꪣꪀ": 2374,
      "ꪹꪣꪸꪙ": 2375,
      "ꪹꪣ꪿ꪥ": 2376,
      "ꪹꪣꪷꪥ": 2377,
      "ꪹꪨꪒ": 2378,
      "ꪵꪣ꫁ꪉ": 2379,
      "ꪵꪣ꫁ꪀ": 2380,
      "ꪹꪮ꫁ꪉ": 2381,
      "ꪹꪮꪷ꫁ꪙ": 2382,
      "ꪹꪥ꫁ꪙ": 2383,
      "ꪹꪩ꪿ꪙ": 2384,
      "ꪹꪩꪸ꪿": 2385,
      "ꪶꪚꪀ": 2386,
      "ꪶꪚꪚ": 2387,
      "ꪶꪚꪨꪚ": 2388,
      "ꪣꪳꪉ": 2389,
      "ꪵꪭ꫁ꪙ": 2390,
      "ꪵꪭ꪿ꪣ": 2391,
      "ꪹꪔꪱ꪿": 2392,
      "ꪹꪔꪷ꪿ꪉ": 2393,
      "ꪹꪔꪸ꪿": 2394,
      "ꪬꪺꪥ": 2395,
      "ꪹꪕꪷ": 2396,
      "ꪵꪎ꫁ꪫ": 2397,
      "ꪵꪎ꪿ꪫ": 2398,
      "ꪜꪲ꪿ꪀ": 2399,
      "ꪵꪒꪀ": 2400,
      "ꪶꪕꪉ": 2401,
      "ꪶꪕ꫁ꪙ": 2402,
      "ꪶꪕ꫁ꪉ": 2403,
      "ꪵꪩꪀ": 2404,
      "ꪶꪄ꪿ꪙ": 2405,
      "ꪹꪬꪉ": 2406,
      "ꪹꪬꪱ꫁": 2407,
      "ꪵꪜꪒ": 2408,
      "ꪵꪜ꪿ꪣ": 2409,
      "ꪵꪔꪙ": 2410,
      "ꪵꪔ꫁ꪉ": 2411,
      "ꪹꪠꪉ": 2412,
      "ꪹꪠꪸꪒ": 2413,
      "ꪹꪠꪷ꪿ꪙ": 2414,
      "ꪹꪠꪷ꫁ꪉ": 2415,
      "ꪹꪏꪱ": 2416,
      "ꪼꪀ꫁": 2417,
      "ꪼꪀꪚ꪿": 2418,
      "ꪹꪊꪸꪒ": 2419,
      "ꪹꪊꪷꪚ": 2420,
      "ꪹꪊꪷ꪿ꪙ": 2421,
      "ꪵꪠꪀ": 2422,
      "ꪹꪫꪱ꫁": 2423,
      "ꪹꪉꪀ": 2424,
      "ꪹꪙꪸꪀ": 2425,
      "ꪹꪝꪱ": 2426,
      "ꪹꪝ꪿ꪙ": 2427,
      "ꪹꪝꪱ꪿": 2428,
      "ꪹꪝꪩꪱ": 2429,
      "ꪻꪎ꫁": 2430,
      "ꪶꪜ꪿ꪙ": 2431,
      "ꪵꪝꪒ": 2432,
      "ꪵꪝ꫁": 2433,
      "ꪵꪬꪚ": 2434,
      "ꪵꪬ꪿": 2435,
      "ꪁꪩꪰ꪿ꪉ": 2436,
      "ꪁꪩꪳꪒ": 2437,
      "ꪶꪮ꪿ꪀ": 2438,
      "ꪹꪢꪱ꫁": 2439,
      "ꪹꪅꪸ꫁ꪀ": 2440,
      "ꪶꪣ꫁ꪀ": 2441,
      "ꪵꪏꪣ": 2442,
      "ꪶꪊꪀ": 2443,
      "ꪶꪊ꪿ꪙ": 2444,
      "ꪹꪘꪀ": 2445,
      "ꪹꪘꪱ꪿": 2446,
      "ꪶꪨ꫁": 2447,
      "ꪶꪨ꪿ꪀ": 2448,
      "ꪹꪛꪷ": 2449,
      "ꪹꪡꪙ": 2450,
      "ꪹꪡꪷꪙ": 2451,
      "ꪶꪝꪚ": 2452,
      "ꪶꪝ꫁ꪙ": 2453,
      "ꪹꪒ꪿ꪉ": 2454,
      "ꪵꪙ꪿ꪣ": 2455,
      "ꪵꪋꪚ": 2456,
      "ꪵꪋꪣ": 2457,
      "ꪵꪋ꫁ꪙ": 2458,
      "ꪝꪴ꫁ꪀ": 2459,
      "ꪵꪫꪫ": 2460,
      "ꪵꪫ꫁": 2461,
      "ꪶꪋ꫁ꪉ": 2462,
      "ꪕꪳ꫁ꪀ": 2463,
      "ꪵꪯꪣ": 2464,
      "ꪵꪯꪫ": 2465,
      "ꪵꪯꪭ": 2466,
      "ꪶꪖ꫁ꪉ": 2467,
      "ꪶꪛꪩꪚ": 2468,
      "ꪵꪨ꪿": 2469,
      "ꪵꪘꪉ": 2470,
      "ꪵꪘ꪿": 2471,
      "ꪵꪘ꫁ꪉ": 2472,
      "ꪶꪥꪙ": 2473,
      "ꪶꪉ꫁ꪣ": 2474,
      "ꪀꪤꪱꪚ": 2475,
      "ꪀꪤ꪿ꪱꪀ": 2476,
      "ꪵꪉ꫁ꪙ": 2477,
      "ꪹꪐꪉ": 2478,
      "ꪎꪴ꪿ꪥ": 2479,
      "ꪶꪅ꪿": 2480,
      "ꪶꪑꪣ": 2481,
      "ꪹꪑꪥ": 2482,
      "ꪹꪑ꫁": 2483,
      "ꪁꪴ꫁ꪙ": 2484,
      "ꪼꪖ꪿": 2485,
      "ꪀꪨ꫁ꪮꪥ": 2486,
      "ꪀꪨꪺꪙ": 2487,
      "ꪮꪲ꪿ꪣ": 2488,
      "ꪼꪚ꪿": 2489,
      "ꪹꪁꪸꪩ꫁": 2490,
      "ꪛꪩꪴꪚ": 2491,
      "ꪛꪩ꫁ꪮꪀ": 2492,
      "ꪉꪺꪣ": 2493,
      "ꪵꪤꪉ": 2494,
      "ꪵꪁꪫꪥ": 2495,
      "ꪼꪠ꫁": 2496,
      "ꪶꪓ꫁ꪀ": 2497,
      "ꪶꪓ꫁ꪥ": 2498,
      "ꪀꪔꪴ꪿ꪙ": 2499,
      "ꪵꪗ꫁": 2500,
      "ꪵꪏꪩꪚ": 2501,
      "ꪶꪐ꪿ꪀ": 2502,
      "ꪁꪣꪴ꫁ꪣ": 2503,
      "ꪝꪙꪲꪉ": 2504,
      "ꪯꪥꪮꪒ": 2505,
      "ꪵꪑꪉ": 2506,
      "ꪹꪛꪸꪭ꫁": 2507,
      "ꪀꪺꪣ": 2508,
      "ꪔꪘ꪿ꪮꪥ": 2509,
      "ꪵꪛꪀ": 2510,
      "ꪶꪏꪣ꫁ꪙ": 2511,
      "kả": 2512,
      "ꪀꪰꪀ": 2513,
      "ꪀꪴꪙ": 2514,
      "ꪀꪳ꪿ꪙ": 2515,
      "ꪀꪴ꫁ꪥ": 2516,
      "ꪀ꪿ꪮꪀ": 2517,
      "ꪁꪳ": 2518,
      "ꪁꪱꪣ": 2519,
      "ꪁ꪿ꪽ": 2520,
      "ꪁꪴ꫁ꪣ": 2521,
      "ꪁꪲ꫁ꪫ": 2522,
      "ꪁ꪿ꪺꪉ": 2523,
      "ꪁꪲꪀ": 2524,
      "ꪁ꪿ꪫꪱꪉ": 2525,
      "ꪄꪨ": 2526,
      "ꪄꪴ": 2527,
      "ꪄꪮꪀ": 2528,
      "ꪄꪰꪉ": 2529,
      "ꪄꪱꪣ": 2530,
      "ꪄꪴꪒ": 2531,
      "ꪄꪲꪉ": 2532,
      "ꪄꪺꪀ": 2533,
      "ꪄꪲ꪿ꪫ": 2534,
      "ꪄꪲꪫ": 2535,
      "ꪄ꪿ꪫꪱ": 2536,
      "ꪄ꫁ꪫꪱꪉ": 2537,
      "ꪅꪥ": 2538,
      "ꪅꪾ꫁": 2539,
      "ꪅꪷ꫁": 2540,
      "ꪅꪺꪙ": 2541,
      "ꪅꪴꪣ": 2542,
      "ꪅꪴ꫁ꪣ": 2543,
      "ꪅꪴ꪿ꪣ": 2544,
      "ꪅꪳ꫁ꪣ": 2545,
      "ꪈꪾ": 2546,
      "ꪈ꫁ꪮꪉ": 2547,
      "ꪉꪮꪉ": 2548,
      "ꪉ꫁ꪀ": 2549,
      "ꪉꪱꪣ": 2550,
      "ꪉ꫁ꪱꪙ": 2551,
      "ꪉꪮꪚ": 2552,
      "ꪉ꪿ꪮꪙ": 2553,
      "ꪉꪸꪉ": 2554,
      "ꪉ꪿ꪱꪫ": 2555,
      "ꪉ꪿ꪮꪥ": 2556,
      "ꪉꪺꪒ": 2557,
      "ꪉꪸ꫁ꪉ": 2558,
      "ꪉ꫁ꪮꪀ": 2559,
      "ꪉ꪿ꪫꪱ": 2560,
      "ꪉ꫁ꪺꪀ": 2561,
      "ꪊꪲ": 2562,
      "ꪊ꪿ꪱ": 2563,
      "ꪊꪱꪉ": 2564,
      "ꪊꪱꪚ": 2565,
      "ꪊꪰꪒ": 2566,
      "ꪊ꪿ꪮꪙ": 2567,
      "ꪊꪲ꫁": 2568,
      "ꪊ꪿ꪱꪙ": 2569,
      "ꪊꪸꪚ": 2570,
      "ꪋꪷ": 2571,
      "ꪋꪾ꫁": 2572,
      "ꪋꪱꪚ": 2573,
      "ꪋꪮꪒ": 2574,
      "ꪋꪾ꪿": 2575,
      "ꪋꪲꪚ": 2576,
      "ꪋ꫁ꪮꪣ": 2577,
      "ꪋꪳ꫁ꪀ": 2578,
      "ꪎꪒ": 2579,
      "ꪎꪺ": 2580,
      "ꪎ꫁ꪱ": 2581,
      "ꪎꪷ꪿": 2582,
      "ꪎ꫁ꪱꪥ": 2583,
      "ꪎꪰꪒ": 2584,
      "ꪎ꪿ꪱꪙ": 2585,
      "ꪎ꪿ꪮꪥ": 2586,
      "ꪎꪴꪚ": 2587,
      "ꪎꪲ꫁ꪙ": 2588,
      "ꪎ꫁ꪺꪥ": 2589,
      "ꪎꪲ꫁ꪫ": 2590,
      "ꪎꪸ꪿ꪫ": 2591,
      "ꪎꪲ꪿ꪫ": 2592,
      "ꪏꪱꪉ": 2593,
      "ꪏꪲꪙ": 2594,
      "ꪏꪸꪒ": 2595,
      "ꪏꪴ꪿": 2596,
      "ꪏꪱꪫ": 2597,
      "ꪏꪸꪉ": 2598,
      "ꪏꪮꪣ": 2599,
      "ꪏꪴꪙ": 2600,
      "ꪏꪴ꫁ꪣ": 2601,
      "ꪏ꪿ꪺꪙ": 2602,
      "ꪏꪲꪣ": 2603,
      "ꪐꪱ": 2604,
      "ꪐ꪿ꪱ": 2605,
      "ꪐꪾꪚ": 2606,
      "ꪐꪱꪫ": 2607,
      "ꪐꪱꪣ": 2608,
      "ꪐ꫁ꪺꪉ": 2609,
      "ꪐꪳ꫁": 2610,
      "ꪐꪸ꫁ꪣ": 2611,
      "ꪑ꫁": 2612,
      "ꪑꪸꪒ": 2613,
      "ꪑꪱꪚ": 2614,
      "ꪑ꫁ꪮꪥ": 2615,
      "ꪑꪮꪒ": 2616,
      "ꪑ꫁ꪱꪥ": 2617,
      "ꪑꪰꪒ": 2618,
      "ꪑꪰ꪿ꪉ": 2619,
      "ꪑ꪿ꪮꪥ": 2620,
      "ꪑ꫁ꪮꪣ": 2621,
      "ꪑꪳ꪿ꪉ": 2622,
      "ꪒꪮꪉ": 2623,
      "ꪒꪸꪒ": 2624,
      "ꪒ꫁ꪱꪥ": 2625,
      "ꪓꪰꪒ": 2626,
      "ꪔ꫁ꪮꪥ": 2627,
      "ꪔꪴ꫁": 2628,
      "ꪔꪲ꫁": 2629,
      "ꪔꪴꪣ": 2630,
      "ꪔꪳꪉ": 2631,
      "ꪕ꪿ꪺ": 2632,
      "ꪕꪮꪙ": 2633,
      "ꪕꪰꪒ": 2634,
      "ꪕꪺꪙ": 2635,
      "ꪕꪸꪣ": 2636,
      "ꪕꪴꪣ": 2637,
      "ꪕꪲ꪿ꪉ": 2638,
      "ꪕ꫁ꪺꪉ": 2639,
      "ꪖꪲ": 2640,
      "ꪖꪽ": 2641,
      "ꪖꪱꪚ": 2642,
      "ꪖꪮꪒ": 2643,
      "ꪖ꫁ꪱꪥ": 2644,
      "ꪖ꫁ꪱꪙ": 2645,
      "ꪖ꪿ꪱꪣ": 2646,
      "ꪗꪩ": 2647,
      "ꪘꪮꪀ": 2648,
      "ꪘꪱꪣ": 2649,
      "ꪘ꪿ꪱꪫ": 2650,
      "ꪘꪾ꪿": 2651,
      "ꪘꪸ꪿ꪉ": 2652,
      "ꪘꪸ꪿ꪫ": 2653,
      "ꪘ꫁ꪺꪙ": 2654,
      "ꪘꪲ꪿ꪀ": 2655,
      "ꪙꪷ": 2656,
      "ꪙꪱꪙ": 2657,
      "ꪙ꫁ꪱꪫ": 2658,
      "ꪙ꪿ꪽ": 2659,
      "ꪙꪮꪥ": 2660,
      "ꪙ꪿ꪮꪣ": 2661,
      "ꪙꪸ꪿ꪙ": 2662,
      "ꪙꪳ꫁ꪀ": 2663,
      "ꪚꪳ": 2664,
      "ꪚꪸ": 2665,
      "ꪚ꪿ꪱꪉ": 2666,
      "ꪚ꪿ꪱꪙ": 2667,
      "ꪚꪴꪉ": 2668,
      "ꪚꪸ꪿": 2669,
      "ꪚꪺꪚ": 2670,
      "ꪛꪺ": 2671,
      "ꪜꪮꪉ": 2672,
      "ꪜꪲꪙ": 2673,
      "ꪜꪷ꫁": 2674,
      "ꪜꪱꪣ": 2675,
      "ꪜ꫁ꪮꪙ": 2676,
      "ꪜꪸꪫ": 2677,
      "ꪜ꪿ꪺꪉ": 2678,
      "ꪜꪳ꪿ꪉ": 2679,
      "ꪝꪥ": 2680,
      "ꪝꪱꪉ": 2681,
      "ꪝꪲꪙ": 2682,
      "ꪝꪱꪒ": 2683,
      "ꪝꪱꪫ": 2684,
      "ꪝ꫁ꪱꪙ": 2685,
      "ꪝꪮꪚ": 2686,
      "ꪝ꪿ꪮꪉ": 2687,
      "ꪝ꪿ꪱꪫ": 2688,
      "ꪝꪳꪙ": 2689,
      "ꪝꪩꪱ": 2690,
      "ꪠꪽ": 2691,
      "ꪠꪮꪉ": 2692,
      "ꪠꪸꪒ": 2693,
      "ꪠꪸꪙ": 2694,
      "ꪠꪰ꪿ꪉ": 2695,
      "ꪠ꪿ꪱꪙ": 2696,
      "ꪡꪮꪀ": 2697,
      "ꪡꪮꪙ": 2698,
      "ꪡꪸꪙ": 2699,
      "ꪡꪲꪒ": 2700,
      "ꪢ꪿ꪱ": 2701,
      "ꪢꪱꪒ": 2702,
      "ꪢꪴꪀ": 2703,
      "ꪢꪸ꪿ꪉ": 2704,
      "ꪢ꫁ꪺꪥ": 2705,
      "ꪢ꪿ꪱꪀ": 2706,
      "ꪣ꪿ꪱ": 2707,
      "ꪣꪱꪥ": 2708,
      "ꪣ꪿ꪱꪉ": 2709,
      "ꪣꪮꪚ": 2710,
      "ꪣ꫁ꪽ": 2711,
      "ꪣꪴꪀ": 2712,
      "ꪣ꪿ꪱꪙ": 2713,
      "ꪣꪲꪉ": 2714,
      "ꪣ꪿ꪽ": 2715,
      "ꪣꪴꪚ": 2716,
      "ꪣꪴꪉ": 2717,
      "ꪤꪲ": 2718,
      "ꪤꪱꪙ": 2719,
      "ꪤꪳ꫁ꪙ": 2720,
      "ꪤꪳꪣ": 2721,
      "ꪤꪸ꪿ꪙ": 2722,
      "ꪤꪳ꫁": 2723,
      "ꪥꪷ": 2724,
      "ꪥꪮꪀ": 2725,
      "ꪥꪷ꫁": 2726,
      "ꪥ꪿ꪮꪥ": 2727,
      "ꪥ꪿ꪮꪣ": 2728,
      "ꪥꪸ꪿": 2729,
      "ꪨ꫁ꪙ": 2730,
      "ꪨ꪿ꪀ": 2731,
      "ꪨ꪿ꪺ": 2732,
      "ꪨ꫁ꪺ": 2733,
      "ꪨ꫁ꪮꪉ": 2734,
      "ꪨꪮꪣ": 2735,
      "ꪨꪰ꪿ꪉ": 2736,
      "ꪨꪾ꪿": 2737,
      "ꪨꪲ꫁ꪫ": 2738,
      "ꪨꪲꪫ": 2739,
      "ꪨꪳꪚ": 2740,
      "ꪨꪴ꫁ꪙ": 2741,
      "ꪩꪸ": 2742,
      "ꪩꪽ": 2743,
      "ꪩ꪿ꪺ": 2744,
      "ꪩꪴ꪿": 2745,
      "ꪩ꫁ꪺ": 2746,
      "ꪩ꪿ꪱꪫ": 2747,
      "ꪩ꪿ꪽ": 2748,
      "ꪩꪲꪚ": 2749,
      "ꪩꪳ꫁ꪙ": 2750,
      "ꪩꪺꪒ": 2751,
      "ꪩꪴ꪿ꪣ": 2752,
      "ꪩꪴ꫁ꪥ": 2753,
      "ꪩꪳ꫁ꪣ": 2754,
      "ꪩꪸ꪿ꪣ": 2755,
      "ꪪꪰ꪿ꪉ": 2756,
      "ꪪꪲ꫁ꪙ": 2757,
      "ꪫꪮꪉ": 2758,
      "ꪫꪰꪒ": 2759,
      "ꪫ꫁ꪮꪉ": 2760,
      "ꪫꪸꪉ": 2761,
      "ꪫ꫁ꪱꪉ": 2762,
      "ꪫ꪿ꪱꪙ": 2763,
      "ꪬꪲꪒ": 2764,
      "ꪬꪾ꫁": 2765,
      "ꪬꪱꪣ": 2766,
      "ꪬ꫁ꪽ": 2767,
      "ꪬꪺꪉ": 2768,
      "ꪬꪳ꪿": 2769,
      "ꪬꪸꪚ": 2770,
      "ꪬꪸ꫁ꪙ": 2771,
      "ꪬꪲ꫁ꪫ": 2772,
      "ꪬꪴ꪿ꪣ": 2773,
      "ꪬꪳꪚ": 2774,
      "ꪬꪳ꪿ꪀ": 2775,
      "ꪭꪱ": 2776,
      "ꪭꪽ": 2777,
      "ꪭꪮꪉ": 2778,
      "ꪭ꪿ꪺ": 2779,
      "ꪭꪸꪒ": 2780,
      "ꪭꪴ꪿": 2781,
      "ꪭꪱꪚ": 2782,
      "ꪭꪲ꪿": 2783,
      "ꪭꪺꪉ": 2784,
      "ꪭ꪿ꪱꪥ": 2785,
      "ꪭ꪿ꪮꪥ": 2786,
      "ꪭꪺꪒ": 2787,
      "ꪭ꪿ꪮꪣ": 2788,
      "ꪭꪴ꫁ꪉ": 2789,
      "ꪭꪴ꫁ꪀ": 2790,
      "ꪭꪺꪥ": 2791,
      "ꪮꪱꪉ": 2792,
      "ꪮꪮꪉ": 2793,
      "ꪮꪴ꪿": 2794,
      "ꪮꪱꪒ": 2795,
      "ꪮ꫁ꪱꪫ": 2796,
      "ꪮ꪿ꪱꪥ": 2797,
      "ꪮꪲꪚ": 2798,
      "ꪮꪸ꫁": 2799,
      "ꪮꪴ꪿ꪣ": 2800,
      "ꪮ꪿ꪮꪣ": 2801,
      "ꪯꪷ꪿": 2802,
      "ꪯ꫁ꪽ": 2803,
      "ꪯꪲꪉ": 2804,
      "ꪯꪮꪥ": 2805,
      "ꪯꪳ꫁ꪉ": 2806,
      "ꪵꪈ": 2807,
      "ꪵꪮꪣ": 2808,
      "ꪼꪘ꪿": 2809,
      "ꪹꪚ꪿": 2810,
      "ꪶꪀꪀ": 2811,
      "ꪶꪀ꪿": 2812,
      "ꪹꪭꪸ꪿": 2813,
      "ꪹꪄꪸꪙ": 2814,
      "ꪹꪄꪸ꪿ꪙ": 2815,
      "ꪷ꫁ꪥ": 2816,
      "ꪵꪀ꫁ꪉ": 2817,
      "ꪹꪎꪸ": 2818,
      "ꪹꪎ꪿": 2819,
      "ꪹꪎꪸꪒ": 2820,
      "ꪹꪎꪱ꪿": 2821,
      "ꪹꪎꪷꪉ": 2822,
      "ꪹꪎꪷ꪿ꪣ": 2823,
      "ꪶꪁꪉ": 2824,
      "ꪶꪁ꫁": 2825,
      "ꪶꪎ꫁ꪙ": 2826,
      "ꪹꪀꪨ": 2827,
      "ꪹꪀꪷꪥ": 2828,
      "ꪹꪜꪸ꫁": 2829,
      "ꪹꪜꪷꪚ": 2830,
      "ꪵꪄꪣ": 2831,
      "ꪵꪄ꪿ꪙ": 2832,
      "ꪵꪄ꪿ꪀ": 2833,
      "ꪶꪩꪀ": 2834,
      "ꪹꪣ꪿ꪉ": 2835,
      "ꪹꪣꪱ꪿": 2836,
      "ꪹꪁꪱ": 2837,
      "ꪹꪁ꪿": 2838,
      "ꪹꪁꪱ꫁": 2839,
      "ꪹꪁ꪿ꪣ": 2840,
      "ꪹꪁ꪿ꪥ": 2841,
      "ꪹꪨꪷ꪿ꪉ": 2842,
      "ꪹꪨꪸ꫁ꪣ": 2843,
      "ꪵꪣꪚ": 2844,
      "ꪵꪣ꫁": 2845,
      "ꪹꪮꪸꪙ": 2846,
      "ꪹꪮꪷ꫁": 2847,
      "ꪹꪮꪷ꪿ꪙ": 2848,
      "ꪹꪥꪱ": 2849,
      "ꪹꪥꪷ": 2850,
      "ꪹꪥ꫁ꪉ": 2851,
      "ꪹꪩ꪿ꪱ": 2852,
      "ꪹꪩꪷꪚ": 2853,
      "ꪹꪩꪷ꫁ꪀ": 2854,
      "ꪶꪚꪙ": 2855,
      "ꪶꪚꪣ": 2856,
      "ꪶꪚ꪿": 2857,
      "ꪣꪳꪙ": 2858,
      "ꪵꪭꪫ": 2859,
      "ꪵꪭ꫁": 2860,
      "ꪹꪔꪷ": 2861,
      "ꪹꪔ꪿ꪱ": 2862,
      "ꪬꪺꪚ": 2863,
      "ꪵꪎ꪿ꪙ": 2864,
      "ꪁꪫꪱꪀ": 2865,
      "ꪁꪫꪸꪙ": 2866,
      "ꪜꪲꪫ": 2867,
      "ꪶꪕ꫁": 2868,
      "ꪶꪄꪀ": 2869,
      "ꪶꪄꪤ": 2870,
      "ꪶꪄ꪿ꪉ": 2871,
      "ꪷꪙ꫁ꪀ": 2872,
      "ꪹꪬꪱ": 2873,
      "ꪹꪬ꪿ꪉ": 2874,
      "ꪹꪬꪸꪚ": 2875,
      "ꪹꪬꪷꪚ": 2876,
      "ꪶꪭꪀ": 2877,
      "ꪶꪭ꫁ꪙ": 2878,
      "ꪶꪭ꪿ꪣ": 2879,
      "ꪵꪜꪘ": 2880,
      "ꪵꪜ꫁ꪉ": 2881,
      "ꪵꪔꪚ": 2882,
      "ꪵꪚꪣ": 2883,
      "ꪹꪠꪱ꫁": 2884,
      "ꪹꪠꪷ꫁": 2885,
      "ꪹꪠꪸꪀ": 2886,
      "ꪹꪏꪒ": 2887,
      "ꪹꪏꪱ꪿": 2888,
      "ꪹꪊꪸ": 2889,
      "ꪹꪊ꪿ꪉ": 2890,
      "ꪹꪯꪸ꫁ꪫ": 2891,
      "ꪹꪫꪷ": 2892,
      "ꪹꪫꪸ꫁ꪙ": 2893,
      "ꪎꪳ꪿ꪀ": 2894,
      "ꪹꪉꪸ": 2895,
      "ꪹꪉꪷꪚ": 2896,
      "ꪹꪝꪸ꫁ꪙ": 2897,
      "ꪹꪝꪸ꫁ꪀ": 2898,
      "ꪏꪩꪱꪉ": 2899,
      "ꪏꪩꪮꪒ": 2900,
      "ꪏꪩꪮꪥ": 2901,
      "ꪏꪩꪲ꫁ꪀ": 2902,
      "ꪹꪖꪷ": 2903,
      "ꪵꪝꪫ": 2904,
      "ꪵꪝ꪿": 2905,
      "ꪵꪝ꪿ꪉ": 2906,
      "ꪵꪝ꫁ꪫ": 2907,
      "ꪵꪬꪙ": 2908,
      "ꪶꪙꪚ": 2909,
      "ꪵꪕꪚ": 2910,
      "ꪵꪕ꪿ꪙ": 2911,
      "ꪵꪕ꪿ꪫ": 2912,
      "ꪒꪲ꪿ꪙ": 2913,
      "ꪁꪩ꫁ꪮꪀ": 2914,
      "ꪶꪮ꫁": 2915,
      "ꪶꪮꪨꪒ": 2916,
      "ꪹꪅꪷꪙ꫁ꪀ": 2917,
      "ꪶꪣꪉ": 2918,
      "ꪶꪣ꫁ꪙ": 2919,
      "ꪶꪣ꫁ꪣ": 2920,
      "ꪵꪏꪫ": 2921,
      "ꪵꪏ꪿": 2922,
      "ꪶꪊꪉ": 2923,
      "ꪶꪊꪜ": 2924,
      "ꪶꪊ꫁ꪙ": 2925,
      "ꪶꪊ꪿ꪀ": 2926,
      "ꪶꪬ꪿ꪀ": 2927,
      "ꪶꪬ꪿ꪣ": 2928,
      "ꪹꪘꪸꪒ": 2929,
      "ꪹꪘꪸ꫁": 2930,
      "ꪹꪘꪸꪚ": 2931,
      "ꪹꪘꪸ꪿ꪀ": 2932,
      "ꪵꪊ꫁": 2933,
      "ꪵꪊ꪿ꪉ": 2934,
      "ꪵꪊ꫁ꪉ": 2935,
      "ꪵꪊ꪿ꪫ": 2936,
      "ꪶꪨꪒ": 2937,
      "ꪹꪡꪸꪀ": 2938,
      "ꪹꪤꪱ꪿": 2939,
      "ꪹꪤ꫁ꪥ": 2940,
      "ꪶꪝꪥ": 2941,
      "ꪶꪝ꫁ꪀ": 2942,
      "ꪹꪒ꪿": 2943,
      "ꪵꪙꪚ": 2944,
      "ꪵꪋ꪿": 2945,
      "ꪶꪏ꪿": 2946,
      "ꪶꪏ꫁ꪀ": 2947,
      "ꪵꪫꪙ": 2948,
      "ꪵꪫ꪿": 2949,
      "ꪶꪋꪉ꫁ꪀ": 2950,
      "ꪕꪳꪚ": 2951,
      "ꪕꪳ꫁": 2952,
      "ꪶꪡ꫁ꪀ": 2953,
      "ꪎꪸ꫁ꪣ": 2954,
      "ꪵꪯꪉ": 2955,
      "ꪶꪖꪣ": 2956,
      "ꪶꪛ꫁": 2957,
      "ꪵꪨꪫ": 2958,
      "ꪵꪨ꪿ꪉ": 2959,
      "ꪶꪒ꫁ꪙ": 2960,
      "ꪶꪤꪒ": 2961,
      "ꪀ꫁ꪫꪱꪥ": 2962,
      "ꪶꪉ꫁ꪀ": 2963,
      "ꪵꪅ꫁ꪫ": 2964,
      "ꪵꪉ꫁": 2965,
      "ꪵꪥꪉ": 2966,
      "ꪵꪥ꫁": 2967,
      "ꪵꪥ꪿ꪉ": 2968,
      "ꪶꪣꪙꪀ": 2969,
      "ꪶꪅꪚ": 2970,
      "ꪹꪑꪷ": 2971,
      "ꪵꪀꪫ꪿ꪙ": 2972,
      "ꪶꪁꪩ꫁": 2973,
      "ꪀꪨꪴ꪿ꪀ": 2974,
      "ꪀꪨꪲ꪿ꪀ": 2975,
      "ꪄꪫꪱꪙ": 2976,
      "ꪵꪡꪚ": 2977,
      "ꪹꪁꪸꪩꪒ": 2978,
      "ꪼꪁ꫁": 2979,
      "ꪵꪤ꫁": 2980,
      "ꪵꪤ꪿ꪉ": 2981,
      "ꪵꪐꪉ": 2982,
      "ꪵꪐ꪿ꪉ": 2983,
      "ꪵꪗꪉ": 2984,
      "ꪶꪘ꪿ꪀ": 2985,
      "ꪀ꪿ꪫꪱꪥ": 2986,
      "ꪀ꪿ꪫꪱꪀ": 2987,
      "ꪁꪣ꪿ꪮꪣ": 2988,
      "ꪩꪉꪮꪒ": 2989,
      "ꪹꪀꪸꪫꪥ": 2990,
      "ꪉ꫁ꪫꪱ": 2991,
      "ꪚꪬ꪿ꪮꪥ": 2992,
      "ꪝꪩ꫁ꪮꪀ": 2993,
      "ꪬꪨꪲꪀ": 2994,
      "ꪅ꫁ꪱꪀ": 2995,
      "ꪊꪨꪺꪀ": 2996,
      "ꪵꪀꪒ꫁ꪉ": 2997,
      "ꪅꪥ꪿ꪱꪉ": 2998,
      "hư": 2999,
      "ká": 3000,
      "ng": 3001,
      "ỡn": 3002,
      "ꪀꪮꪣ": 3003,
      "ꪀ꫁ꪱꪫ": 3004,
      "ꪀꪴꪣ": 3005,
      "ꪀꪺꪒ": 3006,
      "ꪀ꪿ꪺꪉ": 3007,
      "ꪀꪴ꪿ꪀ": 3008,
      "ꪀ꫁ꪺꪙ": 3009,
      "ꪀꪳ꫁": 3010,
      "ꪀꪲ꫁ꪣ": 3011,
      "ꪀꪲ꪿ꪀ": 3012,
      "ꪀꪘꪲꪚ": 3013,
      "ꪁ꫁ꪫ": 3014,
      "ꪁ꫁ꪺ": 3015,
      "ꪁꪴ꫁": 3016,
      "ꪁꪲ꫁": 3017,
      "ꪁ꫁ꪮꪣ": 3018,
      "ꪁꪸ꫁ꪙ": 3019,
      "ꪁ꪿ꪮꪣ": 3020,
      "ꪁ꪿ꪺꪙ": 3021,
      "ꪁꪕꪰꪀ": 3022,
      "ꪁꪕꪱ": 3023,
      "ꪁꪕꪳ꫁ꪙ": 3024,
      "ꪁꪕꪮꪀ": 3025,
      "ꪁ꫁ꪫꪱꪉ": 3026,
      "ꪄꪐ": 3027,
      "ꪄꪲ": 3028,
      "ꪄꪱꪀ": 3029,
      "ꪄꪸꪒ": 3030,
      "ꪄꪸꪙ": 3031,
      "ꪄꪮꪣ": 3032,
      "ꪄꪳ꪿": 3033,
      "ꪄꪴꪙ": 3034,
      "ꪄꪸ꪿ꪉ": 3035,
      "ꪄꪴ꫁ꪣ": 3036,
      "ꪄꪴ꪿ꪀ": 3037,
      "ꪄ꪿ꪱꪣ": 3038,
      "ꪄꪳꪀ": 3039,
      "ꪄꪲ꫁ꪉ": 3040,
      "ꪄꪲ꪿ꪀ": 3041,
      "ꪄꪨꪴ꫁ꪣ": 3042,
      "ꪄꪤꪮꪉ": 3043,
      "ꪄꪨꪷ꫁": 3044,
      "ꪄꪴ꫁ꪙ": 3045,
      "ꪄꪘ꪿ꪱꪉ": 3046,
      "ꪅꪑ": 3047,
      "ꪅꪲ": 3048,
      "ꪅꪴ": 3049,
      "ꪅꪺ": 3050,
      "ꪅꪱꪥ": 3051,
      "ꪅꪷ꪿": 3052,
      "ꪅꪮꪀ": 3053,
      "ꪅꪮꪙ": 3054,
      "ꪅꪲꪉ": 3055,
      "ꪅ꫁ꪮꪣ": 3056,
      "ꪅꪺꪀ": 3057,
      "ꪅ꪿ꪱꪣ": 3058,
      "ꪅꪩꪱꪀ": 3059,
      "ꪅꪴꪥ": 3060,
      "ꪅꪑꪮꪀ": 3061,
      "ꪅꪥ꫁ꪮꪀ": 3062,
      "ꪅꪲ꪿ꪣ": 3063,
      "ꪈꪷ": 3064,
      "ꪈ꫁ꪱ": 3065,
      "ꪈ꪿ꪱ": 3066,
      "ꪈꪮꪀ": 3067,
      "ꪈ꫁ꪮꪥ": 3068,
      "ꪈꪴꪒ": 3069,
      "ꪈ꫁ꪱꪫ": 3070,
      "ꪈ꫁ꪮꪣ": 3071,
      "ꪈꪺꪒ": 3072,
      "ꪈꪲ꪿ꪙ": 3073,
      "ꪈꪴ꫁ꪥ": 3074,
      "ꪈꪫꪱꪥ": 3075,
      "ꪉꪲ": 3076,
      "ꪉ꪿": 3077,
      "ꪉ꫁": 3078,
      "ꪉꪷ꪿": 3079,
      "ꪉꪱꪀ": 3080,
      "ꪉꪾ꫁": 3081,
      "ꪉ꫁ꪮꪥ": 3082,
      "ꪉꪴ꫁": 3083,
      "ꪉ꫁ꪱꪫ": 3084,
      "ꪉ꪿ꪽ": 3085,
      "ꪉꪸꪫ": 3086,
      "ꪉ꫁ꪺꪥ": 3087,
      "ꪉꪺꪚ": 3088,
      "ꪉꪲ꫁ꪀ": 3089,
      "ꪊꪺ": 3090,
      "ꪊꪮꪙ": 3091,
      "ꪊ꫁ꪮꪥ": 3092,
      "ꪊ꪿ꪮꪥ": 3093,
      "ꪊ꪿ꪽ": 3094,
      "ꪊꪳ꫁ꪙ": 3095,
      "ꪊꪸꪫ": 3096,
      "ꪊ꪿ꪺꪉ": 3097,
      "ꪊꪴ꪿ꪣ": 3098,
      "ꪊ꪿ꪮꪣ": 3099,
      "ꪊꪳꪉ": 3100,
      "ꪋꪷ꪿": 3101,
      "ꪋꪱꪀ": 3102,
      "ꪋꪮꪉ": 3103,
      "ꪋꪸꪒ": 3104,
      "ꪋꪰ꪿ꪉ": 3105,
      "ꪋ꫁ꪱꪫ": 3106,
      "ꪋ꪿ꪱꪙ": 3107,
      "ꪋ꪿ꪱꪥ": 3108,
      "ꪋꪲ꫁ꪙ": 3109,
      "ꪋ꪿ꪱꪣ": 3110,
      "ꪋꪲꪣ": 3111,
      "ꪋꪲꪫ": 3112,
      "ꪋꪴ꫁ꪥ": 3113,
      "ꪋꪸ꫁ꪫ": 3114,
      "ꪋꪣꪺ": 3115,
      "ꪋꪩꪴꪙ": 3116,
      "ꪎꪢ": 3117,
      "ꪎꪰ": 3118,
      "ꪎꪱꪒ": 3119,
      "ꪎꪷ꫁": 3120,
      "ꪎꪲ꫁": 3121,
      "ꪎꪾ꪿": 3122,
      "ꪎꪸꪀ": 3123,
      "ꪎꪸꪣ": 3124,
      "ꪎꪸ꪿ꪉ": 3125,
      "ꪎꪳꪒ": 3126,
      "ꪎꪴ꪿ꪣ": 3127,
      "ꪎꪸ꪿": 3128,
      "ꪎꪲꪫ": 3129,
      "ꪎꪲ꪿ꪙ": 3130,
      "ꪎꪴ꫁ꪥ": 3131,
      "ꪎꪲꪀ": 3132,
      "ꪎꪴꪥ": 3133,
      "ꪎꪈꪫꪱꪥ": 3134,
      "ꪏꪀ": 3135,
      "ꪏꪉ": 3136,
      "ꪏ꪿ꪱꪉ": 3137,
      "ꪏꪾꪚ": 3138,
      "ꪏꪮꪒ": 3139,
      "ꪏꪷ꫁": 3140,
      "ꪏ꫁ꪱꪥ": 3141,
      "ꪏ꫁ꪱꪙ": 3142,
      "ꪏꪴ꫁": 3143,
      "ꪏꪲꪉ": 3144,
      "ꪏꪾ꪿": 3145,
      "ꪏꪴꪚ": 3146,
      "ꪏ꫁ꪮꪣ": 3147,
      "ꪏꪲ꫁ꪫ": 3148,
      "ꪏ꪿ꪱꪣ": 3149,
      "ꪏꪲꪫ": 3150,
      "ꪏꪣꪰꪀ": 3151,
      "ꪏꪴꪥ": 3152,
      "ꪏꪙ꪿ꪽ": 3153,
      "ꪐꪮꪙ": 3154,
      "ꪐ꫁ꪱꪥ": 3155,
      "ꪐ꪿ꪮꪣ": 3156,
      "ꪐꪺꪀ": 3157,
      "ꪐꪴꪥ": 3158,
      "ꪑꪾ": 3159,
      "ꪑꪱꪫ": 3160,
      "ꪑꪴꪙ": 3161,
      "ꪑꪲ꫁ꪫ": 3162,
      "ꪑꪳ꫁ꪀ": 3163,
      "ꪒꪷ꪿": 3164,
      "ꪒꪮꪒ": 3165,
      "ꪒ꪿ꪽ": 3166,
      "ꪒꪸ꫁ꪉ": 3167,
      "ꪒꪳ꪿ꪙ": 3168,
      "ꪒ꫁ꪺꪉ": 3169,
      "ꪒꪸ꫁ꪣ": 3170,
      "ꪓꪷ": 3171,
      "ꪓꪱꪙ": 3172,
      "ꪓꪸ꫁ꪙ": 3173,
      "ꪓ꫁ꪮꪀ": 3174,
      "ꪔꪀ": 3175,
      "ꪔꪷ": 3176,
      "ꪔ꫁ꪫ": 3177,
      "ꪔꪰꪉ": 3178,
      "ꪔꪳ꪿": 3179,
      "ꪔ꫁ꪺꪥ": 3180,
      "ꪔ꪿ꪺꪉ": 3181,
      "ꪔꪲ꫁ꪉ": 3182,
      "ꪔꪲ꪿ꪀ": 3183,
      "ꪔꪳ꪿ꪀ": 3184,
      "ꪔꪴ꪿ꪥ": 3185,
      "ꪔꪨ꫁ꪮꪥ": 3186,
      "ꪕ꫁ꪱ": 3187,
      "ꪕ꫁ꪀ": 3188,
      "ꪕꪱꪒ": 3189,
      "ꪕꪱꪣ": 3190,
      "ꪕ꪿ꪮꪙ": 3191,
      "ꪕ꫁ꪱꪉ": 3192,
      "ꪕꪲꪉ": 3193,
      "ꪕꪳꪒ": 3194,
      "ꪕꪸ꫁ꪙ": 3195,
      "ꪕ꫁ꪱꪣ": 3196,
      "ꪕꪲ꫁ꪫ": 3197,
      "ꪕ꪿ꪺꪥ": 3198,
      "ꪕꪴ꫁ꪀ": 3199,
      "ꪖꪱꪥ": 3200,
      "ꪖꪷ꪿": 3201,
      "ꪖꪰꪀ": 3202,
      "ꪖꪮꪀ": 3203,
      "ꪖꪮꪙ": 3204,
      "ꪖꪾ꫁": 3205,
      "ꪖ꫁ꪮꪥ": 3206,
      "ꪖꪴꪒ": 3207,
      "ꪖꪳ꪿": 3208,
      "ꪖꪸꪚ": 3209,
      "ꪖ꪿ꪮꪣ": 3210,
      "ꪖꪸ꪿ꪫ": 3211,
      "ꪗꪷ": 3212,
      "ꪗꪱꪥ": 3213,
      "ꪗꪷ꫁": 3214,
      "ꪗꪰꪒ": 3215,
      "ꪗ꫁ꪱꪉ": 3216,
      "ꪗꪳꪒ": 3217,
      "ꪘꪷ": 3218,
      "ꪘꪸ": 3219,
      "ꪘꪱꪥ": 3220,
      "ꪘ꪿ꪀ": 3221,
      "ꪘꪰꪒ": 3222,
      "ꪘ꫁ꪮꪉ": 3223,
      "ꪘꪴ꫁": 3224,
      "ꪘꪸꪀ": 3225,
      "ꪘꪸꪣ": 3226,
      "ꪘꪴꪣ": 3227,
      "ꪘꪴ꪿ꪣ": 3228,
      "ꪙꪀ": 3229,
      "ꪙꪺ": 3230,
      "ꪙꪱꪀ": 3231,
      "ꪙꪮꪉ": 3232,
      "ꪙꪱꪒ": 3233,
      "ꪙꪱꪫ": 3234,
      "ꪙꪱꪣ": 3235,
      "ꪙꪺꪙ": 3236,
      "ꪙꪾ꪿": 3237,
      "ꪙ꪿ꪮꪥ": 3238,
      "ꪙꪴ꪿ꪣ": 3239,
      "ꪚꪲ": 3240,
      "ꪚꪴ": 3241,
      "ꪚꪴ꪿": 3242,
      "ꪚ꫁ꪱꪥ": 3243,
      "ꪚꪮꪚ": 3244,
      "ꪚꪴꪀ": 3245,
      "ꪚ꪿ꪱꪥ": 3246,
      "ꪚꪺꪀ": 3247,
      "ꪚ꪿ꪺꪙ": 3248,
      "ꪚ꪿ꪮꪀ": 3249,
      "ꪛꪥ": 3250,
      "ꪛꪴ": 3251,
      "ꪛ꪿ꪺꪥ": 3252,
      "ꪛ꪿ꪺꪙ": 3253,
      "ꪛꪭꪱꪥ": 3254,
      "ꪛꪥꪰ꪿ꪉ": 3255,
      "ꪜꪚ": 3256,
      "ꪜꪳ": 3257,
      "ꪜꪸꪙ": 3258,
      "ꪜꪾ꫁": 3259,
      "ꪜꪺꪉ": 3260,
      "ꪜ꫁ꪱꪉ": 3261,
      "ꪜꪲꪉ": 3262,
      "ꪜꪰ꫁ꪉ": 3263,
      "ꪜꪴꪚ": 3264,
      "ꪜꪸ꫁": 3265,
      "ꪜ꪿ꪱꪀ": 3266,
      "ꪜꪳ꫁": 3267,
      "ꪜꪳ꪿ꪀ": 3268,
      "ꪜꪨꪱꪚ": 3269,
      "ꪜꪈ꫁ꪮꪉ": 3270,
      "ꪝꪾ": 3271,
      "ꪝꪱꪀ": 3272,
      "ꪝꪮꪒ": 3273,
      "ꪝ꫁ꪽ": 3274,
      "ꪝ꪿ꪽ": 3275,
      "ꪝꪴꪙ": 3276,
      "ꪝꪸ꫁": 3277,
      "ꪝꪴꪣ": 3278,
      "ꪝꪸ꫁ꪙ": 3279,
      "ꪝꪴ꪿ꪣ": 3280,
      "ꪝ꪿ꪮꪣ": 3281,
      "ꪝꪺꪀ": 3282,
      "ꪝ꫁ꪮꪀ": 3283,
      "ꪝꪲ꪿ꪙ": 3284,
      "ꪠꪱꪥ": 3285,
      "ꪠꪱꪚ": 3286,
      "ꪠꪮꪒ": 3287,
      "ꪠꪲꪉ": 3288,
      "ꪠ꪿ꪮꪥ": 3289,
      "ꪠꪴ꪿ꪙ": 3290,
      "ꪠꪳ꪿ꪙ": 3291,
      "ꪠꪸ꪿ꪫ": 3292,
      "ꪠ꪿ꪱꪀ": 3293,
      "ꪠꪲꪫ": 3294,
      "ꪠꪴꪥ": 3295,
      "ꪡꪩ": 3296,
      "ꪡꪲ꪿": 3297,
      "ꪡꪱꪣ": 3298,
      "ꪡ꫁ꪮꪉ": 3299,
      "ꪡ꫁ꪱꪉ": 3300,
      "ꪡꪾ꪿": 3301,
      "ꪡꪳꪙ": 3302,
      "ꪡꪸꪀ": 3303,
      "ꪡꪳ꪿": 3304,
      "ꪡꪳꪣ": 3305,
      "ꪡ꪿ꪱꪣ": 3306,
      "ꪢꪽ": 3307,
      "ꪢꪷ꪿": 3308,
      "ꪢꪲꪒ": 3309,
      "ꪢ꫁ꪮꪥ": 3310,
      "ꪢꪰꪉ": 3311,
      "ꪢ꪿ꪮꪙ": 3312,
      "ꪢ꪿ꪮꪉ": 3313,
      "ꪢ꪿ꪱꪥ": 3314,
      "ꪢꪮꪥ": 3315,
      "ꪢꪴꪙ": 3316,
      "ꪢꪸ꪿ꪫ": 3317,
      "ꪣꪱꪉ": 3318,
      "ꪣ꪿ꪺ": 3319,
      "ꪣꪾꪚ": 3320,
      "ꪣꪰꪉ": 3321,
      "ꪣꪰ꪿ꪉ": 3322,
      "ꪣꪺꪙ": 3323,
      "ꪣꪰ꫁ꪉ": 3324,
      "ꪣꪲ꪿ꪉ": 3325,
      "ꪣ꫁ꪮꪀ": 3326,
      "ꪣꪴ꫁ꪥ": 3327,
      "ꪣꪲ꪿ꪣ": 3328,
      "ꪤꪷ": 3329,
      "ꪤ꪿ꪉ": 3330,
      "ꪤꪷ꪿": 3331,
      "ꪤ꫁ꪣ": 3332,
      "ꪤꪰꪉ": 3333,
      "ꪤꪱꪫ": 3334,
      "ꪤꪷ꫁": 3335,
      "ꪤ꪿ꪮꪥ": 3336,
      "ꪤꪸꪫ": 3337,
      "ꪤꪲ꫁ꪫ": 3338,
      "ꪤ꪿ꪺꪥ": 3339,
      "ꪤ꪿ꪱꪣ": 3340,
      "ꪤ꪿ꪱꪀ": 3341,
      "ꪥꪱꪉ": 3342,
      "ꪥꪮꪙ": 3343,
      "ꪥꪲ꪿": 3344,
      "ꪥ꫁ꪱꪥ": 3345,
      "ꪥ꪿ꪮꪉ": 3346,
      "ꪥ꪿ꪱꪫ": 3347,
      "ꪥ꫁ꪱꪉ": 3348,
      "ꪥꪳꪙ": 3349,
      "ꪥ꪿ꪽ": 3350,
      "ꪥꪲꪚ": 3351,
      "ꪥꪴꪣ": 3352,
      "ꪥ꫁ꪱꪣ": 3353,
      "ꪥꪴ꪿ꪣ": 3354,
      "ꪥꪴꪥ": 3355,
      "ꪨꪉ": 3356,
      "ꪨꪮꪉ": 3357,
      "ꪨ꪿ꪮꪙ": 3358,
      "ꪨ꪿ꪱꪥ": 3359,
      "ꪨꪸ꫁": 3360,
      "ꪨꪳꪒ": 3361,
      "ꪩ꪿": 3362,
      "ꪩꪷ꪿": 3363,
      "ꪩꪸꪙ": 3364,
      "ꪩꪾ꫁": 3365,
      "ꪩ꪿ꪱꪉ": 3366,
      "ꪩꪲ꪿": 3367,
      "ꪩ꫁ꪽ": 3368,
      "ꪩ꫁ꪮꪙ": 3369,
      "ꪩ꪿ꪱꪥ": 3370,
      "ꪩꪴꪣ": 3371,
      "ꪩ꪿ꪣ": 3372,
      "ꪩꪸ꫁ꪙ": 3373,
      "ꪩ꫁ꪺꪥ": 3374,
      "ꪩ꪿ꪺꪉ": 3375,
      "ꪩꪺꪀ": 3376,
      "ꪩꪲꪣ": 3377,
      "ꪩ꫁ꪺꪙ": 3378,
      "ꪩꪲ꫁ꪣ": 3379,
      "ꪩꪁꪳꪚ": 3380,
      "ꪪꪸ": 3381,
      "ꪪꪱꪀ": 3382,
      "ꪪꪰꪉ": 3383,
      "ꪪꪰꪒ": 3384,
      "ꪪ꫁ꪱꪙ": 3385,
      "ꪪꪺꪉ": 3386,
      "ꪫꪸꪙ": 3387,
      "ꪫ꫁ꪮꪥ": 3388,
      "ꪫꪮꪥ": 3389,
      "ꪫ꫁ꪺꪥ": 3390,
      "ꪫꪲ꪿ꪫ": 3391,
      "ꪬ꪿ꪉ": 3392,
      "ꪬ꪿ꪺ": 3393,
      "ꪬꪸꪒ": 3394,
      "ꪬꪴ꪿": 3395,
      "ꪬꪲ꪿": 3396,
      "ꪬ꪿ꪮꪉ": 3397,
      "ꪬꪴꪒ": 3398,
      "ꪬ꪿ꪮꪥ": 3399,
      "ꪬꪸꪀ": 3400,
      "ꪬꪸ꫁": 3401,
      "ꪬꪲꪀ": 3402,
      "ꪬꪲ꫁ꪉ": 3403,
      "ꪬ꪿ꪫꪱ": 3404,
      "ꪭꪰ꫁ꪉ": 3405,
      "ꪭꪴꪙ": 3406,
      "ꪭꪸꪣ": 3407,
      "ꪭꪴꪣ": 3408,
      "ꪭꪳꪒ": 3409,
      "ꪭ꫁ꪺꪥ": 3410,
      "ꪭꪴꪉ": 3411,
      "ꪭ꪿ꪺꪉ": 3412,
      "ꪭꪳ꪿ꪉ": 3413,
      "ꪭꪸ꪿ꪫ": 3414,
      "ꪭ꫁ꪺꪉ": 3415,
      "ꪭꪸ꫁ꪫ": 3416,
      "ꪭꪫꪱꪀ": 3417,
      "ꪮꪴ": 3418,
      "ꪮ꫁ꪺ": 3419,
      "ꪮꪰꪒ": 3420,
      "ꪮ꫁ꪮꪉ": 3421,
      "ꪮ꫁ꪽ": 3422,
      "ꪮꪴ꫁": 3423,
      "ꪮ꪿ꪮꪉ": 3424,
      "ꪮꪮꪣ": 3425,
      "ꪮꪴꪒ": 3426,
      "ꪮꪸꪀ": 3427,
      "ꪮꪴ꪿ꪀ": 3428,
      "ꪮꪳꪣ": 3429,
      "ꪮꪳꪀ": 3430,
      "ꪮꪲ꫁ꪉ": 3431,
      "ꪮ꪿ꪮꪀ": 3432,
      "ꪮꪲ꪿ꪀ": 3433,
      "ꪮꪴ꪿ꪥ": 3434,
      "ꪮꪫꪱꪙ": 3435,
      "ꪮꪢꪴꪀ": 3436,
      "ꪮꪎꪳꪒ": 3437,
      "ꪮꪘꪴ꪿ꪣ": 3438,
      "ꪮꪨꪳꪒ": 3439,
      "ꪯꪸ": 3440,
      "ꪯꪰꪀ": 3441,
      "ꪯꪮꪉ": 3442,
      "ꪯꪷ꫁": 3443,
      "ꪯ꪿ꪱꪫ": 3444,
      "ꪯꪴꪀ": 3445,
      "ꪯꪳ꫁ꪙ": 3446,
      "ꪯꪳ꫁ꪀ": 3447,
      "ꪯꪙꪰꪀ": 3448,
      "ꪲꪥ": 3449,
      "ꪶꪮꪉ": 3450,
      "ꪶꪮꪙ": 3451,
      "ꪶꪓꪙ": 3452,
      "ꪷꪐ": 3453,
      "ꪷꪩꪣ": 3454,
      "ꪷꪤ꪿ꪉ": 3455,
      "ꪸꪨ꪿ꪙ": 3456,
      "ꪻꪋ": 3457,
      "ꪻꪨ": 3458,
      "ꪻꪯ": 3459,
      "ꪻꪉ꪿": 3460,
      "ꪼꪑ": 3461,
      "ꪼꪉ꫁": 3462,
      "ꪷ꪿ꪨꪀ": 3463,
      "ꪹꪚ꫁ꪱ": 3464,
      "ꪹꪚ꫁ꪣ": 3465,
      "ꪹꪚꪸꪀ": 3466,
      "ꪹꪚꪸ꪿ꪉ": 3467,
      "ꪸꪙꪀ": 3468,
      "ꪶꪀꪨ꫁ꪙ": 3469,
      "ꪶꪀꪤ꫁ꪣ": 3470,
      "ꪹꪭꪥ": 3471,
      "ꪹꪭ꪿ꪉ": 3472,
      "ꪹꪭꪸꪒ": 3473,
      "ꪹꪭꪷꪥ": 3474,
      "ꪹꪭꪷꪀ": 3475,
      "ꪹꪭꪷꪣ": 3476,
      "ꪹꪭꪷꪩꪣ": 3477,
      "ꪹꪄꪉ": 3478,
      "ꪹꪄ꪿ꪉ": 3479,
      "ꪹꪄꪷꪀ": 3480,
      "ꪲ꪿ꪥ": 3481,
      "ꪵꪀꪀ": 3482,
      "ꪵꪀꪘ꪿ꪀ": 3483,
      "ꪹꪎꪷꪙ": 3484,
      "ꪹꪎꪸ꫁ꪙ": 3485,
      "ꪹꪎꪸ꫁ꪣ": 3486,
      "ꪹꪎꪷ꫁ꪙ": 3487,
      "ꪶꪁꪀ": 3488,
      "ꪶꪁ꪿ꪙ": 3489,
      "ꪶꪁꪕ꫁ꪀ": 3490,
      "ꪶꪎꪀ": 3491,
      "ꪶꪎꪨ꪿ꪀ": 3492,
      "ꪹꪀꪸꪀ": 3493,
      "ꪹꪀꪷꪉ": 3494,
      "ꪹꪀ꪿ꪥ": 3495,
      "ꪹꪀꪷ꫁ꪥ": 3496,
      "ꪹꪀꪷꪤ꪿ꪉ": 3497,
      "ꪹꪀꪷ꪿ꪨꪀ": 3498,
      "ꪶꪔꪉ": 3499,
      "ꪶꪔꪣ": 3500,
      "ꪶꪔ꪿": 3501,
      "ꪶꪔ꪿ꪙ": 3502,
      "ꪶꪔ꫁ꪉ": 3503,
      "ꪹꪜꪱ": 3504,
      "ꪵꪄꪚ": 3505,
      "ꪵꪄ꫁ꪉ": 3506,
      "ꪵꪄ꪿ꪫ": 3507,
      "ꪵꪄꪨꪀ": 3508,
      "ꪹꪋꪸꪒ": 3509,
      "ꪶꪩꪙ": 3510,
      "ꪶꪩ꫁": 3511,
      "ꪶꪩ꪿ꪙ": 3512,
      "ꪹꪣꪚ": 3513,
      "ꪹꪣꪷ꫁": 3514,
      "ꪹꪣꪷ꫁ꪀ": 3515,
      "ꪘ꫁ꪱꪫ": 3516,
      "ꪹꪁ꫁ꪣ": 3517,
      "ꪹꪁꪸ꪿": 3518,
      "ꪹꪁꪷꪒ": 3519,
      "ꪹꪁꪸ꫁ꪀ": 3520,
      "ꪹꪨꪙ": 3521,
      "ꪹꪨꪣ": 3522,
      "ꪹꪨꪥ": 3523,
      "ꪹꪨꪱ": 3524,
      "ꪹꪨ꫁": 3525,
      "ꪹꪨꪸꪙ": 3526,
      "ꪹꪨꪱ꪿": 3527,
      "ꪹꪨꪷ꫁ꪙ": 3528,
      "ꪵꪣ꫁ꪫ": 3529,
      "ꪹꪮꪷ": 3530,
      "ꪹꪮ꫁": 3531,
      "ꪹꪮ꪿ꪱ": 3532,
      "ꪹꪮ꫁ꪙ": 3533,
      "ꪹꪮ꫁ꪣ": 3534,
      "ꪹꪮꪸ꫁": 3535,
      "ꪹꪮꪷ꪿ꪉ": 3536,
      "ꪹꪮꪸ꪿ꪀ": 3537,
      "ꪹꪮꪸ꪿": 3538,
      "ꪹꪮꪷꪀ": 3539,
      "ꪹꪥꪀ": 3540,
      "ꪹꪥꪷ꪿": 3541,
      "ꪹꪥꪱ꪿": 3542,
      "ꪹꪥꪷ꫁ꪀ": 3543,
      "ꪹꪩꪱ꫁": 3544,
      "ꪹꪩꪸ꫁": 3545,
      "ꪹꪩꪸ꪿ꪉ": 3546,
      "ꪹꪩꪸꪚ": 3547,
      "ꪹꪩꪸ꫁ꪉ": 3548,
      "ꪹꪩꪸꪫ": 3549,
      "ꪹꪩꪸ꫁ꪀ": 3550,
      "ꪵꪁꪀ": 3551,
      "ꪵꪁ꫁ꪣ": 3552,
      "ꪵꪁꪩ꫁": 3553,
      "ꪵꪁꪩ꪿ꪙ": 3554,
      "ꪶꪚꪥ": 3555,
      "ꪶꪚ꪿ꪉ": 3556,
      "ꪶꪚ꪿ꪥ": 3557,
      "ꪶꪚꪬ꪿ꪉ": 3558,
      "ꪣꪳ꫁ꪀ": 3559,
      "ꪵꪭꪀ": 3560,
      "ꪵꪭꪙ": 3561,
      "ꪵꪭ꪿": 3562,
      "ꪹꪔꪀ": 3563,
      "ꪹꪔꪷ꪿": 3564,
      "ꪹꪔꪸꪙ": 3565,
      "ꪹꪔꪷꪙ": 3566,
      "ꪹꪔꪷꪉ": 3567,
      "ꪹꪔꪷ꫁ꪙ": 3568,
      "ꪹꪕꪷꪙ": 3569,
      "ꪹꪕꪸꪚ": 3570,
      "ꪹꪕꪸ꪿": 3571,
      "ꪹꪕꪷꪣ": 3572,
      "ꪵꪎꪀ": 3573,
      "ꪵꪎꪫ": 3574,
      "ꪁꪫꪱꪙ": 3575,
      "ꪜꪲꪚ": 3576,
      "ꪜꪲ꪿ꪉ": 3577,
      "ꪵꪒꪫ": 3578,
      "ꪶꪕꪀ": 3579,
      "ꪶꪕ꪿ꪙ": 3580,
      "ꪮꪥꪱꪒ": 3581,
      "ꪵꪩꪒ": 3582,
      "ꪵꪩꪙ": 3583,
      "ꪵꪩ꪿ꪉ": 3584,
      "ꪶꪄ꪿ꪥ": 3585,
      "ꪶꪄꪨ꪿ꪙ": 3586,
      "ꪹꪬ꫁ꪙ": 3587,
      "ꪹꪬꪷ꪿": 3588,
      "ꪵꪜꪚ": 3589,
      "ꪵꪜꪫ": 3590,
      "ꪵꪜꪨꪚ": 3591,
      "ꪵꪔ꪿ꪙ": 3592,
      "ꪵꪚꪉ": 3593,
      "ꪵꪚꪒ": 3594,
      "ꪵꪚ꪿ꪀ": 3595,
      "ꪵꪚ꫁ꪣ": 3596,
      "ꪵꪚ꪿ꪫ": 3597,
      "ꪵꪚꪔ꫁ꪫ": 3598,
      "ꪹꪠ꪿": 3599,
      "ꪹꪠꪸ꫁": 3600,
      "ꪹꪠꪸ꪿ꪣ": 3601,
      "ꪹꪏꪸ": 3602,
      "ꪹꪏꪸꪒ": 3603,
      "ꪹꪏꪸꪙ": 3604,
      "ꪹꪏꪷꪙ": 3605,
      "ꪹꪏꪷꪥ": 3606,
      "ꪹꪏꪷ꪿ꪣ": 3607,
      "ꪹꪏꪷꪀ": 3608,
      "ꪹꪊꪱ꪿": 3609,
      "ꪹꪯꪚ": 3610,
      "ꪹꪯꪷ": 3611,
      "ꪹꪯꪷ꪿": 3612,
      "ꪹꪯꪷ꫁": 3613,
      "ꪹꪯꪸꪫ": 3614,
      "ꪹꪯꪸ꫁ꪀ": 3615,
      "ꪵꪠꪒ": 3616,
      "ꪵꪮ꫁": 3617,
      "ꪵꪮ꪿ꪀ": 3618,
      "ꪹꪫꪱ꪿": 3619,
      "ꪹꪫꪸꪀ": 3620,
      "ꪹꪫꪷꪉ": 3621,
      "ꪎꪳ꫁": 3622,
      "ꪹꪉꪷ": 3623,
      "ꪹꪉꪱ꪿": 3624,
      "ꪹꪙꪙ": 3625,
      "ꪹꪙꪷ": 3626,
      "ꪹꪝꪷꪙ": 3627,
      "ꪹꪝꪸꪫ": 3628,
      "ꪹꪝꪷ꪿ꪥ": 3629,
      "ꪏꪩ꫁ꪱ": 3630,
      "ꪏꪩꪱꪥ": 3631,
      "ꪏꪩꪮꪀ": 3632,
      "ꪏꪩ꪿ꪱꪉ": 3633,
      "ꪏꪩꪾꪚ": 3634,
      "ꪏꪩꪴꪒ": 3635,
      "ꪏꪩꪲ꪿ꪫ": 3636,
      "ꪶꪜ꫁ꪥ": 3637,
      "ꪶꪜꪈ꫁ꪉ": 3638,
      "ꪶꪠꪒ": 3639,
      "ꪶꪠ꫁ꪉ": 3640,
      "ꪶꪠꪨꪀ": 3641,
      "ꪹꪖꪒ": 3642,
      "ꪹꪖ꪿ꪙ": 3643,
      "ꪹꪖꪷ꪿ꪙ": 3644,
      "ꪵꪝꪣ": 3645,
      "ꪵꪝꪩꪣ": 3646,
      "ꪵꪬꪫ": 3647,
      "ꪵꪬ꪿ꪉ": 3648,
      "ꪵꪬ꪿ꪙ": 3649,
      "ꪵꪬ꫁ꪙ": 3650,
      "ꪵꪬ꫁ꪫ": 3651,
      "ꪶꪙ꪿ꪥ": 3652,
      "ꪼꪣ꪿": 3653,
      "ꪵꪕꪀ": 3654,
      "ꪁꪩꪰꪉ": 3655,
      "ꪁꪩ꪿ꪮꪙ": 3656,
      "ꪁꪩ꪿ꪱꪫ": 3657,
      "ꪁꪩꪲ꪿ꪫ": 3658,
      "ꪶꪮ꫁ꪙ": 3659,
      "ꪶꪮ꫁ꪉ": 3660,
      "ꪶꪮꪜꪚ": 3661,
      "ꪹꪢꪱ꪿": 3662,
      "ꪹꪢꪷ꫁ꪙ": 3663,
      "ꪹꪢꪷꪐ": 3664,
      "ꪹꪅꪸ": 3665,
      "ꪹꪅꪸꪉ": 3666,
      "ꪹꪅꪸꪀ": 3667,
      "ꪹꪅꪸ꪿ꪉ": 3668,
      "ꪼꪎꪨ": 3669,
      "ꪶꪣꪣ": 3670,
      "ꪵꪏꪁ": 3671,
      "ꪵꪏꪙ": 3672,
      "ꪵꪏ꫁": 3673,
      "ꪵꪏ꪿ꪉ": 3674,
      "ꪶꪊꪒ": 3675,
      "ꪶꪊꪚ": 3676,
      "ꪶꪊꪨꪒ": 3677,
      "ꪶꪬꪉ": 3678,
      "ꪶꪬꪚ": 3679,
      "ꪶꪬ꪿": 3680,
      "ꪹꪘꪱ꫁": 3681,
      "ꪹꪘꪸ꫁ꪙ": 3682,
      "ꪹꪘꪷꪥ": 3683,
      "ꪹꪘꪸ꪿ꪙ": 3684,
      "ꪵꪊꪙ": 3685,
      "ꪶꪨ꪿ꪣ": 3686,
      "ꪹꪛꪱ": 3687,
      "ꪹꪛꪸꪙꪀ": 3688,
      "ꪼꪄ꫁": 3689,
      "ꪹꪡꪒ": 3690,
      "ꪹꪡꪸ": 3691,
      "ꪹꪡ꫁ꪉ": 3692,
      "ꪹꪡꪸꪒ": 3693,
      "ꪹꪡꪸꪚ": 3694,
      "ꪹꪤꪱ": 3695,
      "ꪹꪤꪷꪉ": 3696,
      "ꪹꪒ꫁ꪉ": 3697,
      "ꪹꪒꪸꪒ": 3698,
      "ꪹꪒꪸ꪿ꪙ": 3699,
      "ꪵꪙꪀ": 3700,
      "ꪵꪙ꫁ꪫ": 3701,
      "ꪵꪋ꫁ꪫ": 3702,
      "ꪶꪏꪀ": 3703,
      "ꪶꪏꪒ": 3704,
      "ꪶꪏꪚ": 3705,
      "ꪶꪏ꫁ꪥ": 3706,
      "ꪶꪯꪉ": 3707,
      "ꪶꪯꪚ": 3708,
      "ꪶꪯꪩ": 3709,
      "ꪶꪯ꫁": 3710,
      "ꪶꪯ꫁ꪀ": 3711,
      "ꪝꪴ꫁ꪙ": 3712,
      "ꪵꪫꪒ": 3713,
      "ꪵꪫ꪿ꪉ": 3714,
      "ꪵꪫ꪿ꪫ": 3715,
      "ꪵꪫꪩꪒ": 3716,
      "ꪶꪋꪒ": 3717,
      "ꪶꪋꪙ": 3718,
      "ꪶꪋ꫁": 3719,
      "ꪶꪋ꪿ꪉ": 3720,
      "ꪕꪳ꫁ꪉ": 3721,
      "ꪶꪡ꫁ꪉ": 3722,
      "ꪎꪸ꫁ꪫ": 3723,
      "ꪵꪯꪀ": 3724,
      "ꪵꪯ꫁ꪀ": 3725,
      "ꪵꪯ꫁ꪫ": 3726,
      "ꪵꪯꪥꪒ": 3727,
      "ꪼꪢ꫁": 3728,
      "ꪶꪖꪚ": 3729,
      "ꪶꪖ꪿": 3730,
      "ꪶꪖ꪿ꪉ": 3731,
      "ꪶꪛ꪿": 3732,
      "ꪹꪁꪷꪀ": 3733,
      "ꪵꪨ꪿ꪫ": 3734,
      "ꪶꪒ꪿ꪥ": 3735,
      "ꪵꪘꪚ": 3736,
      "ꪵꪘ꫁ꪣ": 3737,
      "ꪶꪤꪀ": 3738,
      "ꪶꪤꪉ": 3739,
      "ꪶꪤ꫁ꪣ": 3740,
      "ꪶꪥꪒ": 3741,
      "ꪶꪥꪚ": 3742,
      "ꪶꪥ꫁": 3743,
      "ꪶꪥ꫁ꪀ": 3744,
      "ꪶꪥ꪿ꪣ": 3745,
      "ꪶꪉꪉ": 3746,
      "ꪶꪉꪚ": 3747,
      "ꪶꪉꪥ": 3748,
      "ꪶꪉ꪿ꪥ": 3749,
      "ꪀꪤꪲꪒ": 3750,
      "ꪀꪤꪰꪒ": 3751,
      "ꪀꪤ꫁ꪱꪣ": 3752,
      "ꪀꪤꪳꪀ": 3753,
      "ꪀꪫꪸꪒ": 3754,
      "ꪀꪫꪲ꪿ꪥ": 3755,
      "ꪵꪅꪒ": 3756,
      "ꪵꪅꪙ": 3757,
      "ꪵꪅ꪿": 3758,
      "ꪵꪅꪩꪒ": 3759,
      "ꪵꪉꪚ": 3760,
      "ꪵꪉ꪿ꪉ": 3761,
      "ꪵꪉ꫁ꪫ": 3762,
      "ꪹꪐꪱ꫁": 3763,
      "ꪹꪐꪸ꫁": 3764,
      "ꪵꪪ꫁": 3765,
      "ꪶꪅꪒ": 3766,
      "ꪶꪑꪉ": 3767,
      "ꪶꪑ꫁ꪉ": 3768,
      "ꪹꪑꪱ꫁": 3769,
      "ꪁꪴꪥ": 3770,
      "ꪼꪏ꫁": 3771,
      "ꪀꪒꪽ": 3772,
      "ꪀꪒꪱꪀ": 3773,
      "ꪀꪒꪾ꫁": 3774,
      "ꪀꪒꪴ꪿ꪉ": 3775,
      "ꪀꪨꪴ꫁ꪙ": 3776,
      "ꪵꪖ꪿ꪉ": 3777,
      "ꪹꪚꪷꪔꪀ": 3778,
      "ꪄꪫꪽ": 3779,
      "ꪄꪫꪲꪥ": 3780,
      "ꪼꪨ꪿": 3781,
      "ꪵꪡꪀ": 3782,
      "ꪵꪡꪒ": 3783,
      "ꪵꪡꪙ": 3784,
      "ꪵꪡꪩꪒ": 3785,
      "ꪛꪩ꪿ꪱ": 3786,
      "ꪛꪩꪳ꫁ꪀ": 3787,
      "ꪼꪩ꪿": 3788,
      "ꪋ꫁ꪱꪀ": 3789,
      "ꪹꪮꪸꪎꪒ": 3790,
      "ꪶꪈ꪿ꪣ": 3791,
      "ꪶꪈ꫁ꪥ": 3792,
      "ꪹꪈꪸ꪿ꪉ": 3793,
      "ꪻꪁ꫁": 3794,
      "ꪹꪯꪸꪥꪒ": 3795,
      "ꪨꪺꪣ": 3796,
      "ꪶꪗꪣ": 3797,
      "ꪶꪗꪩ꪿ꪣ": 3798,
      "ꪶꪏꪉ꪿ꪣ": 3799,
      "ꪀꪔ꪿ꪱꪀ": 3800,
      "ꪵꪢꪚ": 3801,
      "ꪵꪢ꪿ꪉ": 3802,
      "ꪵꪢ꫁ꪙ": 3803,
      "ꪵꪏꪩꪒ": 3804,
      "ꪵꪏꪩꪫ": 3805,
      "ꪶꪐ꫁ꪙ": 3806,
      "ꪶꪘ꫁ꪥ": 3807,
      "ꪵꪩꪉꪒ": 3808,
      "ꪵꪩꪉꪚ": 3809,
      "ꪅꪩꪳ꪿ꪙ": 3810,
      "ꪅꪩꪳ꪿ꪉ": 3811,
      "ꪅꪩꪫꪱꪒ": 3812,
      "ꪝꪙꪺ": 3813,
      "ꪵꪑ꫁ꪀ": 3814,
      "ꪹꪗꪒ": 3815,
      "ꪹꪗꪷ": 3816,
      "ꪹꪗꪸ꫁ꪉ": 3817,
      "ꪹꪛꪸꪩ꪿": 3818,
      "ꪶꪅꪥ꪿ꪉ": 3819,
      "ꪎꪨꪲꪒ": 3820,
      "ꪔꪘꪴ꪿ꪙ": 3821,
      "ꪥ꫁ꪱꪀ": 3822,
      "ꪯꪩ꪿ꪱꪉ": 3823,
      "ꪯꪩꪴ꫁ꪣ": 3824,
      "ꪼꪮ꫁": 3825,
      "ꪉ꫁ꪫꪱꪥ": 3826,
      "ꪚꪬ꪿ꪮꪉ": 3827,
      "ꪝꪩꪲꪣ": 3828,
      "ꪬꪨꪴꪀ": 3829,
      "ꪼꪤ꪿": 3830,
      "ꪶꪏꪩꪀ": 3831,
      "ꪶꪏꪩꪚ": 3832,
      "ꪹꪊꪸꪒ꪿ꪀ": 3833,
      "ꪹꪛꪷꪭ": 3834,
      "ꪹꪛꪷꪏꪀ": 3835,
      "ꪵꪯꪣꪚ": 3836,
      "ꪵꪯꪭꪀ": 3837,
      "ꪵꪯꪭ꪿ꪣ": 3838,
      "ꪄꪨꪲꪒ": 3839,
      "ꪗꪩꪴꪥ": 3840,
      "ꪶꪄꪤꪚ": 3841,
      "ꪵꪜꪘ꫁ꪫ": 3842,
      "ꪹꪖꪷꪨꪀ": 3843,
      "ꪶꪊꪜꪉ": 3844,
      "hưỡn": 3845,
      "ꪁ꫁ꪫꪱ": 3846,
      "ꪄꪐꪱꪀ": 3847,
      "ꪎꪰꪮꪱꪒ": 3848,
      "ꪔꪳ꪿ꪣ": 3849,
      "ꪛꪥꪳ꫁": 3850,
      "ꪡꪩꪸ꫁": 3851,
      "ꪹꪕꪷꪣꪙ": 3852,
      "bà": 3853,
      "ch": 3854,
      "kó": 3855,
      "kĩ": 3856,
      "nh": 3857,
      "ua": 3858,
      "ꪀꪱ꫁": 3859,
      "ꪀꪴꪀ": 3860,
      "ꪀ꪿ꪮꪥ": 3861,
      "ꪀꪮꪥ": 3862,
      "ꪀꪴ꪿ꪉ": 3863,
      "ꪀꪨꪰꪉ": 3864,
      "ꪀ꫁ꪺꪉ": 3865,
      "ꪀꪫꪱ": 3866,
      "ꪀꪒꪲꪒ": 3867,
      "ꪀꪎꪱ": 3868,
      "ꪀꪊꪲꪒ": 3869,
      "ꪀꪸ꪿ꪣ": 3870,
      "ꪀ꪿ꪺꪀ": 3871,
      "ꪀꪊ꫁ꪮꪥ": 3872,
      "ꪁꪸ": 3873,
      "ꪁ꫁ꪉ": 3874,
      "ꪁꪲꪚ": 3875,
      "ꪁ꪿ꪱꪣ": 3876,
      "ꪁꪙꪱ": 3877,
      "ꪁꪴ꫁ꪥ": 3878,
      "ꪁꪺꪥ": 3879,
      "ꪁꪋ꫁ꪱ": 3880,
      "ꪄꪰꪀ": 3881,
      "ꪄꪾ꫁": 3882,
      "ꪄꪸꪉ": 3883,
      "ꪄꪴ꫁": 3884,
      "ꪄ꪿ꪫ": 3885,
      "ꪄꪳꪙ": 3886,
      "ꪄꪸꪀ": 3887,
      "ꪄꪸ꪿ꪙ": 3888,
      "ꪄꪳꪚ": 3889,
      "ꪄꪢꪴꪀ": 3890,
      "ꪅꪙ": 3891,
      "ꪅ꫁ꪮꪥ": 3892,
      "ꪅꪰꪉ": 3893,
      "ꪅ꫁ꪱꪥ": 3894,
      "ꪅ꪿ꪮꪉ": 3895,
      "ꪅꪺꪉ": 3896,
      "ꪅ꫁ꪱꪉ": 3897,
      "ꪅꪮꪥ": 3898,
      "ꪅ꫁ꪺꪉ": 3899,
      "ꪅꪳꪚ": 3900,
      "ꪅꪩꪱꪒ": 3901,
      "ꪅꪕꪴꪚ": 3902,
      "ꪅꪙꪳ꫁ꪀ": 3903,
      "ꪆꪬ꫁": 3904,
      "ꪈꪱ": 3905,
      "ꪈꪱꪀ": 3906,
      "ꪈꪮꪒ": 3907,
      "ꪈ꫁ꪱꪥ": 3908,
      "ꪈ꪿ꪱꪙ": 3909,
      "ꪈ꪿ꪮꪣ": 3910,
      "ꪈ꪿ꪮꪀ": 3911,
      "ꪈꪫꪱꪒ": 3912,
      "ꪉꪉ": 3913,
      "ꪉꪽ": 3914,
      "ꪉꪸꪙ": 3915,
      "ꪉꪱꪒ": 3916,
      "ꪉꪮꪒ": 3917,
      "ꪉꪱꪫ": 3918,
      "ꪉ꫁ꪮꪉ": 3919,
      "ꪉ꫁ꪽ": 3920,
      "ꪉ꫁ꪮꪙ": 3921,
      "ꪉ꫁ꪱꪉ": 3922,
      "ꪉ꪿ꪱꪙ": 3923,
      "ꪉꪲꪚ": 3924,
      "ꪉꪸ꪿ꪉ": 3925,
      "ꪉꪸ꫁ꪙ": 3926,
      "ꪉꪲ꫁ꪫ": 3927,
      "ꪉ꪿ꪮꪣ": 3928,
      "ꪉ꪿ꪺꪙ": 3929,
      "ꪉ꫁ꪺꪙ": 3930,
      "ꪉꪫꪱꪀ": 3931,
      "ꪊꪀ": 3932,
      "ꪊꪴ": 3933,
      "ꪊꪸ": 3934,
      "ꪊꪸꪙ": 3935,
      "ꪊꪱꪒ": 3936,
      "ꪊꪮꪒ": 3937,
      "ꪊ꫁ꪮꪉ": 3938,
      "ꪊ꪿ꪱꪫ": 3939,
      "ꪊꪴꪒ": 3940,
      "ꪊꪰ꫁ꪉ": 3941,
      "ꪊꪸ꫁ꪙ": 3942,
      "ꪊꪀꪮꪉ": 3943,
      "ꪊꪳꪀ": 3944,
      "ꪊꪴ꫁ꪥ": 3945,
      "ꪊꪫꪱ": 3946,
      "ꪊꪨꪷ": 3947,
      "ꪊꪲ꪿ꪀ": 3948,
      "ꪊꪳ꪿ꪀ": 3949,
      "ꪊꪀꪴꪒ": 3950,
      "ꪊꪀꪴ꪿": 3951,
      "ꪋꪣ": 3952,
      "ꪋ꪿ꪱ": 3953,
      "ꪋꪾꪚ": 3954,
      "ꪋꪱꪣ": 3955,
      "ꪋꪮꪣ": 3956,
      "ꪋꪺꪙ": 3957,
      "ꪋꪳꪙ": 3958,
      "ꪋꪰ꫁ꪉ": 3959,
      "ꪋꪸ꪿ꪙ": 3960,
      "ꪋ꫁ꪺꪉ": 3961,
      "ꪋ꫁ꪺꪀ": 3962,
      "ꪋꪴ꫁ꪙ": 3963,
      "ꪎꪺꪀ": 3964,
      "ꪎ꫁ꪺꪣ": 3965,
      "ꪎꪲ꪿ꪀ": 3966,
      "ꪎꪚꪴ": 3967,
      "ꪏꪕ": 3968,
      "ꪏꪷ": 3969,
      "ꪏꪲ꪿": 3970,
      "ꪏꪱꪣ": 3971,
      "ꪏ꪿ꪮꪙ": 3972,
      "ꪏ꫁ꪽ": 3973,
      "ꪏꪲ꫁": 3974,
      "ꪏꪳ꫁ꪙ": 3975,
      "ꪏꪳꪣ": 3976,
      "ꪏꪲ꪿ꪫ": 3977,
      "ꪏꪴ꫁ꪥ": 3978,
      "ꪏꪸ꫁ꪀ": 3979,
      "ꪏꪳ꫁": 3980,
      "ꪏꪲꪀ": 3981,
      "ꪏꪺꪥ": 3982,
      "ꪏꪳ꫁ꪉ": 3983,
      "ꪏꪑꪮꪀ": 3984,
      "ꪏꪉ꫁ꪱ": 3985,
      "ꪏꪉ꫁ꪱꪙ": 3986,
      "ꪏꪡꪮꪀ": 3987,
      "ꪏꪁꪸ": 3988,
      "ꪐꪷ": 3989,
      "ꪐꪱꪉ": 3990,
      "ꪐꪮꪀ": 3991,
      "ꪐꪰꪉ": 3992,
      "ꪐꪮꪚ": 3993,
      "ꪐꪮꪣ": 3994,
      "ꪐ꫁ꪮꪙ": 3995,
      "ꪐ꪿ꪱꪙ": 3996,
      "ꪐ꪿ꪮꪥ": 3997,
      "ꪐ꫁ꪺꪥ": 3998,
      "ꪐꪴ꪿ꪣ": 3999,
      "ꪐꪸ꫁ꪫ": 4000,
      "ꪐꪲ꪿ꪀ": 4001,
      "ꪑꪀ": 4002,
      "ꪑꪳ": 4003,
      "ꪑꪾ꫁": 4004,
      "ꪑꪲ꪿": 4005,
      "ꪑ꫁ꪱꪙ": 4006,
      "ꪑꪴ꫁": 4007,
      "ꪑ꪿ꪮꪉ": 4008,
      "ꪑꪴꪀ": 4009,
      "ꪑꪺꪉ": 4010,
      "ꪑ꫁ꪱꪫ": 4011,
      "ꪑꪴꪣ": 4012,
      "ꪑꪴ꫁ꪣ": 4013,
      "ꪑꪴ꪿ꪙ": 4014,
      "ꪑꪲ꫁ꪣ": 4015,
      "ꪑꪲ꪿ꪣ": 4016,
      "ꪒꪀ": 4017,
      "ꪒꪒ": 4018,
      "ꪒꪾ꫁": 4019,
      "ꪒꪱꪣ": 4020,
      "ꪒꪸꪉ": 4021,
      "ꪒ꫁ꪽ": 4022,
      "ꪒꪮꪣ": 4023,
      "ꪒꪴꪒ": 4024,
      "ꪒ꫁ꪱꪫ": 4025,
      "ꪒꪾ꪿": 4026,
      "ꪒꪲ꪿ꪉ": 4027,
      "ꪒ꪿ꪺꪉ": 4028,
      "ꪒꪴ꪿ꪀ": 4029,
      "ꪒꪳ꪿ꪉ": 4030,
      "ꪒꪳꪉ": 4031,
      "ꪒ꫁ꪺꪙ": 4032,
      "ꪓꪉ": 4033,
      "ꪓꪒ": 4034,
      "ꪓꪱ": 4035,
      "ꪓꪱꪉ": 4036,
      "ꪓ꫁ꪱꪥ": 4037,
      "ꪓꪮꪥ": 4038,
      "ꪔꪚ": 4039,
      "ꪔꪸ": 4040,
      "ꪔꪺ": 4041,
      "ꪔꪴ꪿": 4042,
      "ꪔ꫁ꪱꪥ": 4043,
      "ꪔ꫁ꪱꪫ": 4044,
      "ꪔꪲꪉ": 4045,
      "ꪔꪴꪚ": 4046,
      "ꪔꪸꪣ": 4047,
      "ꪔꪸꪚ": 4048,
      "ꪔꪸꪫ": 4049,
      "ꪔꪺꪀ": 4050,
      "ꪔꪳꪀ": 4051,
      "ꪔꪲꪫ": 4052,
      "ꪔꪲ꪿ꪙ": 4053,
      "ꪔꪈ꫁ꪮꪉ": 4054,
      "ꪔꪎ꪿ꪮꪥ": 4055,
      "ꪕꪲ": 4056,
      "ꪕꪸꪒ": 4057,
      "ꪕ꪿ꪱꪉ": 4058,
      "ꪕ꫁ꪮꪥ": 4059,
      "ꪕ꫁ꪽ": 4060,
      "ꪕ꪿ꪱꪫ": 4061,
      "ꪕꪴꪒ": 4062,
      "ꪕꪣꪳ": 4063,
      "ꪕ꪿ꪽ": 4064,
      "ꪕꪴ꪿ꪙ": 4065,
      "ꪕ꪿ꪱꪣ": 4066,
      "ꪕꪳ꪿ꪉ": 4067,
      "ꪕꪲꪣ": 4068,
      "ꪕꪲ꪿ꪙ": 4069,
      "ꪕꪴ꫁ꪉ": 4070,
      "ꪕꪸ꫁ꪀ": 4071,
      "ꪕꪴꪥ": 4072,
      "ꪕꪣꪳ꪿ꪙ": 4073,
      "ꪕꪅꪮꪀ": 4074,
      "ꪖꪨ": 4075,
      "ꪖꪱ": 4076,
      "ꪖꪸꪙ": 4077,
      "ꪖ꫁ꪺ": 4078,
      "ꪖꪷ꫁": 4079,
      "ꪖ꪿ꪮꪙ": 4080,
      "ꪖ꫁ꪱꪫ": 4081,
      "ꪖꪸꪫ": 4082,
      "ꪖꪳ꫁": 4083,
      "ꪗꪺ": 4084,
      "ꪗꪽ": 4085,
      "ꪗꪾ": 4086,
      "ꪗ꫁ꪱ": 4087,
      "ꪗꪱꪒ": 4088,
      "ꪗ꪿ꪱꪉ": 4089,
      "ꪗ꫁ꪱꪥ": 4090,
      "ꪗ꫁ꪱꪙ": 4091,
      "ꪗ꪿ꪱꪙ": 4092,
      "ꪘꪰ": 4093,
      "ꪘꪲ": 4094,
      "ꪘꪺ": 4095,
      "ꪘꪾ": 4096,
      "ꪘꪱꪙ": 4097,
      "ꪘ꪿ꪺ": 4098,
      "ꪘꪱꪒ": 4099,
      "ꪘ꫁ꪮꪥ": 4100,
      "ꪘꪲ꪿": 4101,
      "ꪘꪲ꫁ꪫ": 4102,
      "ꪘꪴ꪿ꪉ": 4103,
      "ꪘꪺꪀ": 4104,
      "ꪘꪸ꫁ꪫ": 4105,
      "ꪘꪲꪀ": 4106,
      "ꪘꪲ꫁ꪉ": 4107,
      "ꪙꪰ": 4108,
      "ꪙꪰꪉ": 4109,
      "ꪙ꫁ꪺ": 4110,
      "ꪙꪷ꫁": 4111,
      "ꪙ꪿ꪱꪙ": 4112,
      "ꪙꪴꪙ": 4113,
      "ꪙꪴꪉ": 4114,
      "ꪙꪴ꪿ꪙ": 4115,
      "ꪙ꪿ꪱꪣ": 4116,
      "ꪚꪰ": 4117,
      "ꪚꪾ": 4118,
      "ꪚꪸ꪿ꪉ": 4119,
      "ꪚꪳ꪿ꪉ": 4120,
      "ꪚꪲꪣ": 4121,
      "ꪚꪲ꪿ꪙ": 4122,
      "ꪚꪴ꫁ꪉ": 4123,
      "ꪚꪸ꫁ꪫ": 4124,
      "ꪚꪬꪷ": 4125,
      "ꪚꪒꪱ": 4126,
      "ꪛ꫁": 4127,
      "ꪛꪱꪉ": 4128,
      "ꪛꪮꪀ": 4129,
      "ꪛꪾꪚ": 4130,
      "ꪜꪨ": 4131,
      "ꪜꪮꪚ": 4132,
      "ꪜꪴ꫁": 4133,
      "ꪜꪮꪥ": 4134,
      "ꪜꪴ꪿ꪣ": 4135,
      "ꪜꪴ꪿ꪉ": 4136,
      "ꪜꪀ꫁ꪮꪉ": 4137,
      "ꪜꪨꪴ꪿": 4138,
      "ꪝꪀ": 4139,
      "ꪝꪰ": 4140,
      "ꪝꪮꪙ": 4141,
      "ꪝꪴ꪿": 4142,
      "ꪝꪲꪒ": 4143,
      "ꪝ꫁ꪱꪥ": 4144,
      "ꪝꪴ꫁": 4145,
      "ꪝꪴꪒ": 4146,
      "ꪝꪰ꪿ꪉ": 4147,
      "ꪝꪲ꫁": 4148,
      "ꪝ꪿ꪱꪙ": 4149,
      "ꪝꪾ꪿": 4150,
      "ꪝꪳ꪿": 4151,
      "ꪝꪲ꫁ꪫ": 4152,
      "ꪝꪸ꪿": 4153,
      "ꪝꪳ꫁ꪀ": 4154,
      "ꪝꪴ꪿ꪥ": 4155,
      "ꪝꪥꪴꪚ": 4156,
      "ꪝꪉꪮꪉ": 4157,
      "ꪠꪷ": 4158,
      "ꪠꪾ": 4159,
      "ꪠꪾ꫁": 4160,
      "ꪠ꪿ꪮꪙ": 4161,
      "ꪠ꪿ꪮꪉ": 4162,
      "ꪠꪳꪙ": 4163,
      "ꪠ꪿ꪽ": 4164,
      "ꪠꪸꪀ": 4165,
      "ꪠ꪿ꪱꪣ": 4166,
      "ꪠꪐꪱ": 4167,
      "ꪡꪴ꪿": 4168,
      "ꪡ꪿ꪱꪉ": 4169,
      "ꪡ꫁ꪱꪙ": 4170,
      "ꪡ꪿ꪮꪙ": 4171,
      "ꪡꪴ꫁": 4172,
      "ꪡ꪿ꪱꪫ": 4173,
      "ꪡꪴꪀ": 4174,
      "ꪡꪰ꪿ꪉ": 4175,
      "ꪡꪮꪥ": 4176,
      "ꪡꪴ꫁ꪥ": 4177,
      "ꪡꪑꪱꪒ": 4178,
      "ꪢꪚ": 4179,
      "ꪢꪲ": 4180,
      "ꪢꪺ": 4181,
      "ꪢꪱꪙ": 4182,
      "ꪢ꪿ꪱꪉ": 4183,
      "ꪢꪲ꪿": 4184,
      "ꪢꪱꪣ": 4185,
      "ꪢꪰꪒ": 4186,
      "ꪢꪮꪚ": 4187,
      "ꪢꪺꪉ": 4188,
      "ꪢꪲ꫁": 4189,
      "ꪢꪾ꪿": 4190,
      "ꪢꪳꪙ": 4191,
      "ꪢꪳ꪿": 4192,
      "ꪢꪴꪚ": 4193,
      "ꪢꪴ꪿ꪙ": 4194,
      "ꪢꪺꪀ": 4195,
      "ꪢꪸ꪿ꪙ": 4196,
      "ꪢꪲꪫ": 4197,
      "ꪢ꫁ꪺꪙ": 4198,
      "ꪣꪲꪙ": 4199,
      "ꪣꪷ꫁": 4200,
      "ꪣ꫁ꪮꪉ": 4201,
      "ꪣ꫁ꪱꪫ": 4202,
      "ꪣ꫁ꪱꪉ": 4203,
      "ꪣꪾ꪿": 4204,
      "ꪣ꪿ꪮꪥ": 4205,
      "ꪣꪲꪚ": 4206,
      "ꪣ꫁ꪱꪣ": 4207,
      "ꪣꪴ꪿ꪣ": 4208,
      "ꪣꪴ꪿ꪉ": 4209,
      "ꪣꪴ꫁ꪉ": 4210,
      "ꪤꪴ": 4211,
      "ꪤ꪿ꪱ": 4212,
      "ꪤꪮꪙ": 4213,
      "ꪤꪾꪚ": 4214,
      "ꪤꪱꪚ": 4215,
      "ꪤ꫁ꪺ": 4216,
      "ꪤ꫁ꪱꪥ": 4217,
      "ꪤꪰ꪿ꪉ": 4218,
      "ꪤ꪿ꪱꪙ": 4219,
      "ꪤ꪿ꪱꪥ": 4220,
      "ꪤꪮꪥ": 4221,
      "ꪤꪴꪚ": 4222,
      "ꪤ꫁ꪥ": 4223,
      "ꪤ꫁ꪱꪣ": 4224,
      "ꪤ꪿ꪺꪉ": 4225,
      "ꪤ꪿ꪮꪣ": 4226,
      "ꪤꪺꪀ": 4227,
      "ꪤꪲ꪿ꪙ": 4228,
      "ꪤꪸ꫁ꪣ": 4229,
      "ꪤ꪿ꪮꪀ": 4230,
      "ꪤꪲ꪿ꪀ": 4231,
      "ꪥꪱ": 4232,
      "ꪥꪴ": 4233,
      "ꪥꪸ": 4234,
      "ꪥꪷ꪿": 4235,
      "ꪥꪮꪉ": 4236,
      "ꪥꪾ꫁": 4237,
      "ꪥꪱꪣ": 4238,
      "ꪥꪲꪉ": 4239,
      "ꪥꪴꪉ": 4240,
      "ꪨꪱ": 4241,
      "ꪨ꪿": 4242,
      "ꪨꪸꪒ": 4243,
      "ꪨꪲꪒ": 4244,
      "ꪨꪾ꫁": 4245,
      "ꪨꪸꪉ": 4246,
      "ꪨ꫁ꪽ": 4247,
      "ꪨꪴ꫁": 4248,
      "ꪨꪲ꫁": 4249,
      "ꪨꪮꪥ": 4250,
      "ꪨꪴꪣ": 4251,
      "ꪨꪸꪚ": 4252,
      "ꪨꪺꪒ": 4253,
      "ꪨꪴ꪿ꪀ": 4254,
      "ꪨꪳꪣ": 4255,
      "ꪨꪳ꪿ꪉ": 4256,
      "ꪨꪸ꪿ꪫ": 4257,
      "ꪨꪲꪣ": 4258,
      "ꪨꪳꪀ": 4259,
      "ꪨꪲꪀ": 4260,
      "ꪨꪲ꫁ꪣ": 4261,
      "ꪨ꪿ꪮꪀ": 4262,
      "ꪩꪰꪒ": 4263,
      "ꪩꪮꪚ": 4264,
      "ꪩꪰ꪿ꪉ": 4265,
      "ꪩ꫁ꪱꪉ": 4266,
      "ꪩꪴ꫁ꪣ": 4267,
      "ꪩ꫁ꪮꪀ": 4268,
      "ꪩꪳꪀ": 4269,
      "ꪩꪴ꫁ꪉ": 4270,
      "ꪩꪷꪚ": 4271,
      "ꪩꪴ꫁ꪀ": 4272,
      "ꪩꪸ꫁ꪫ": 4273,
      "ꪩꪲꪀ": 4274,
      "ꪩꪳ꫁ꪉ": 4275,
      "ꪩꪴ꪿ꪥ": 4276,
      "ꪩꪲ꪿ꪣ": 4277,
      "ꪪ꫁ꪱꪥ": 4278,
      "ꪪ꪿ꪮꪉ": 4279,
      "ꪪꪲ꪿ꪉ": 4280,
      "ꪪꪸ꫁ꪙ": 4281,
      "ꪪꪲꪀ": 4282,
      "ꪫꪲꪒ": 4283,
      "ꪫ꫁ꪱꪙ": 4284,
      "ꪫꪰ꪿ꪉ": 4285,
      "ꪫ꫁ꪱꪫ": 4286,
      "ꪫꪳ꪿": 4287,
      "ꪫꪳ꪿ꪉ": 4288,
      "ꪫꪸ꫁ꪀ": 4289,
      "ꪫꪳ꫁": 4290,
      "ꪬꪲ": 4291,
      "ꪬꪮꪉ": 4292,
      "ꪬ꫁ꪱꪥ": 4293,
      "ꪬꪰꪒ": 4294,
      "ꪬꪲ꫁": 4295,
      "ꪬꪾ꪿": 4296,
      "ꪬ꪿ꪽ": 4297,
      "ꪬꪸ꫁ꪉ": 4298,
      "ꪬꪴꪉ": 4299,
      "ꪬꪴ꪿ꪀ": 4300,
      "ꪬꪳꪣ": 4301,
      "ꪬꪸ꪿ꪫ": 4302,
      "ꪬꪳꪀ": 4303,
      "ꪬꪫꪱ": 4304,
      "ꪬꪸ꫁ꪣ": 4305,
      "ꪬꪸ꪿ꪣ": 4306,
      "ꪬꪴ꪿ꪥ": 4307,
      "ꪭꪀ": 4308,
      "ꪭ꪿": 4309,
      "ꪭꪰꪉ": 4310,
      "ꪭ꪿ꪮꪙ": 4311,
      "ꪭꪲꪚ": 4312,
      "ꪭꪳ꪿": 4313,
      "ꪭꪴ꫁ꪣ": 4314,
      "ꪭꪲ꫁ꪙ": 4315,
      "ꪭꪴ꪿ꪙ": 4316,
      "ꪭ꪿ꪺꪙ": 4317,
      "ꪭꪸ꪿ꪙ": 4318,
      "ꪭꪫꪱꪉ": 4319,
      "ꪭꪲ꪿ꪫ": 4320,
      "ꪭꪳꪀ": 4321,
      "ꪭꪲ꪿ꪙ": 4322,
      "ꪭꪳꪚ": 4323,
      "ꪭ꫁ꪺꪣ": 4324,
      "ꪭꪲ꫁ꪣ": 4325,
      "ꪭꪺꪚ": 4326,
      "ꪮꪳ": 4327,
      "ꪮꪱꪀ": 4328,
      "ꪮꪲꪙ": 4329,
      "ꪮ꫁ꪫ": 4330,
      "ꪮꪾ꪿": 4331,
      "ꪮꪴꪙ": 4332,
      "ꪮꪴꪚ": 4333,
      "ꪮꪴꪣ": 4334,
      "ꪮꪸ꪿ꪉ": 4335,
      "ꪮꪎꪳ": 4336,
      "ꪮ꪿ꪺꪉ": 4337,
      "ꪮꪸ꪿ꪀ": 4338,
      "ꪮꪳ꪿ꪀ": 4339,
      "ꪮꪨꪴꪒ": 4340,
      "ꪮꪳ꫁ꪣ": 4341,
      "ꪮꪢꪮꪀ": 4342,
      "ꪮꪨꪮꪒ": 4343,
      "ꪮꪸ꪿ꪣ": 4344,
      "ꪯꪲꪒ": 4345,
      "ꪯꪮꪒ": 4346,
      "ꪯꪴꪒ": 4347,
      "ꪯ꫁ꪱꪫ": 4348,
      "ꪯꪴ꪿ꪙ": 4349,
      "ꪯꪴ꪿ꪣ": 4350,
      "ꪯꪸ꫁ꪀ": 4351,
      "ꪯꪳ꫁": 4352,
      "ꪯꪴꪥ": 4353,
      "ꪯꪴ꪿ꪥ": 4354,
      "ꪯꪏꪳꪣ": 4355,
      "ꪵꪆꪬ꫁": 4356,
      "ꪵꪓꪉ": 4357,
      "ꪶꪮꪚ": 4358,
      "ꪸꪨꪀ": 4359,
      "ꪸꪈ꫁ꪉ": 4360,
      "ꪸꪩꪚ": 4361,
      "ꪸꪑ꫁": 4362,
      "ꪸꪊꪀ": 4363,
      "ꪹꪮꪉ": 4364,
      "ꪻꪐ": 4365,
      "ꪻꪘ": 4366,
      "ꪻꪮ": 4367,
      "ꪻꪭ꪿": 4368,
      "ꪼꪑ꫁": 4369,
      "ꪾꪾ꪿": 4370,
      "꪿꪿ꪉ": 4371,
      "ꪹꪚ꫁ꪉ": 4372,
      "ꪹꪚꪱ꫁": 4373,
      "ꪹꪚꪷꪚ": 4374,
      "ꪹꪚꪸꪊꪀ": 4375,
      "ꪶꪀ꪿ꪣ": 4376,
      "ꪶꪀꪔꪚ": 4377,
      "ꪹꪭ꫁ꪉ": 4378,
      "ꪹꪭꪷ꫁": 4379,
      "ꪹꪭꪸꪉ": 4380,
      "ꪹꪭꪸꪀ": 4381,
      "ꪹꪭ꪿ꪥ": 4382,
      "ꪹꪄ꫁": 4383,
      "ꪹꪄꪸꪚ": 4384,
      "ꪹꪄꪸ꪿ꪀ": 4385,
      "ꪹꪄꪸꪨ꪿ꪙ": 4386,
      "ꪹꪎꪙ": 4387,
      "ꪹꪎꪥ": 4388,
      "ꪹꪎꪷ": 4389,
      "ꪹꪎ꪿ꪱ": 4390,
      "ꪹꪎ꫁ꪉ": 4391,
      "ꪹꪎꪸ꫁": 4392,
      "ꪹꪎꪸ꪿ꪫ": 4393,
      "ꪹꪎꪷꪚ": 4394,
      "ꪹꪎꪷ꫁ꪉ": 4395,
      "ꪶꪁ꪿ꪉ": 4396,
      "ꪶꪎꪥ": 4397,
      "ꪶꪎ꪿ꪙ": 4398,
      "ꪶꪎꪨꪉ": 4399,
      "ꪹꪀꪀ": 4400,
      "ꪹꪀꪙ": 4401,
      "ꪹꪀꪣ": 4402,
      "ꪹꪀꪸ": 4403,
      "ꪹꪀ꫁ꪉ": 4404,
      "ꪹꪀꪸꪙ": 4405,
      "ꪹꪀꪸꪉ": 4406,
      "ꪹꪀꪷ꪿ꪉ": 4407,
      "ꪶꪔꪒ": 4408,
      "ꪶꪔ꫁ꪥ": 4409,
      "ꪶꪔꪈ꫁ꪉ": 4410,
      "ꪹꪜꪸꪉ": 4411,
      "ꪹꪜꪷꪙ": 4412,
      "ꪹꪜꪷ꪿ꪀ": 4413,
      "ꪹꪜꪷꪣ": 4414,
      "ꪹꪜꪷ꫁ꪙ": 4415,
      "ꪹꪜꪸꪨ꪿ꪙ": 4416,
      "ꪹꪜꪸꪈ꫁ꪉ": 4417,
      "ꪹꪋ꪿ꪙ": 4418,
      "ꪹꪋꪷ꫁": 4419,
      "ꪹꪋꪱ꪿": 4420,
      "ꪹꪋꪷꪚ": 4421,
      "ꪶꪩꪁ꫁ꪉ": 4422,
      "ꪹꪣꪥ": 4423,
      "ꪹꪣꪱ꫁": 4424,
      "ꪹꪣꪸꪉ": 4425,
      "ꪹꪣꪸ꫁ꪉ": 4426,
      "ꪹꪣꪷꪀ": 4427,
      "ꪹꪣꪙꪀ": 4428,
      "ꪹꪣꪸꪑ꫁": 4429,
      "ꪹꪁꪸ꪿ꪫ": 4430,
      "ꪙꪾ꫁꫁": 4431,
      "ꪹꪨꪀ": 4432,
      "ꪹꪨ꪿ꪱ": 4433,
      "ꪹꪨ꪿ꪉ": 4434,
      "ꪹꪨ꫁ꪉ": 4435,
      "ꪹꪨꪷ꫁": 4436,
      "ꪹꪨꪷꪙ": 4437,
      "ꪹꪨꪸ꫁": 4438,
      "ꪹꪨꪷ꪿ꪙ": 4439,
      "ꪹꪨꪷ꪿ꪣ": 4440,
      "ꪹꪨꪷꪀ": 4441,
      "ꪵꪣꪒ": 4442,
      "ꪹꪮ꪿ꪉ": 4443,
      "ꪹꪮꪷ꪿": 4444,
      "ꪹꪮꪸꪒ": 4445,
      "ꪹꪮꪱ꫁": 4446,
      "ꪹꪮꪸ꫁ꪙ": 4447,
      "ꪹꪮꪷꪥ": 4448,
      "ꪹꪮꪸ꪿ꪫ": 4449,
      "ꪹꪮꪷꪚ": 4450,
      "ꪹꪮꪷ꪿ꪣ": 4451,
      "ꪹꪥꪒ": 4452,
      "ꪹꪥ꫁ꪱ": 4453,
      "ꪹꪥꪱ꫁": 4454,
      "ꪹꪥꪷꪉ": 4455,
      "ꪹꪥꪸ꫁ꪙ": 4456,
      "ꪹꪥ꫁ꪥ": 4457,
      "ꪹꪥꪸ꫁ꪉ": 4458,
      "ꪹꪩꪉ": 4459,
      "ꪹꪩꪷꪙ": 4460,
      "ꪹꪩ꪿ꪥ": 4461,
      "ꪹꪩꪷꪥ": 4462,
      "ꪹꪩꪷꪀ": 4463,
      "ꪹꪩꪷ꫁ꪙ": 4464,
      "ꪵꪁ꫁ꪉ": 4465,
      "ꪵꪁꪓꪒ": 4466,
      "ꪶꪚꪤ꫁ꪥ": 4467,
      "ꪵꪭꪒ": 4468,
      "ꪵꪭꪣ": 4469,
      "ꪵꪭ꫁ꪀ": 4470,
      "ꪵꪭꪩꪒ": 4471,
      "ꪵꪭꪩ꫁": 4472,
      "ꪹꪔ꫁ꪙ": 4473,
      "ꪹꪔꪸꪒ": 4474,
      "ꪹꪔ꫁ꪥ": 4475,
      "ꪹꪔꪸ꫁ꪉ": 4476,
      "ꪹꪔ꪿ꪥ": 4477,
      "ꪹꪔꪸ꪿ꪫ": 4478,
      "ꪹꪔꪷꪚ": 4479,
      "ꪹꪔꪷ꪿ꪙ": 4480,
      "ꪹꪔꪷ꪿ꪣ": 4481,
      "ꪹꪔꪷꪣ": 4482,
      "ꪹꪕꪉ": 4483,
      "ꪹꪕꪙ": 4484,
      "ꪹꪕ꫁ꪱ": 4485,
      "ꪹꪕꪸꪀ": 4486,
      "ꪹꪕꪷꪒ": 4487,
      "ꪹꪕꪷ꪿ꪣ": 4488,
      "ꪁꪫꪱꪉ": 4489,
      "ꪜꪲ꫁ꪉ": 4490,
      "ꪶꪕꪥ": 4491,
      "ꪵꪩꪫ": 4492,
      "ꪵꪩ꪿": 4493,
      "ꪵꪩ꫁ꪣ": 4494,
      "ꪶꪄ꪿": 4495,
      "ꪶꪄ꪿ꪀ": 4496,
      "ꪶꪄ꫁ꪣ": 4497,
      "ꪶꪄꪨ꪿ꪀ": 4498,
      "ꪹꪬꪷ": 4499,
      "ꪹꪬ꪿ꪱ": 4500,
      "ꪹꪬ꫁ꪉ": 4501,
      "ꪹꪬꪷ꪿ꪉ": 4502,
      "ꪹꪬꪸ꪿": 4503,
      "ꪹꪬꪷꪒ": 4504,
      "ꪶꪭ꫁": 4505,
      "ꪶꪭ꪿ꪥ": 4506,
      "ꪵꪜꪈ꫁ꪉ": 4507,
      "ꪵꪔꪒꪀ": 4508,
      "ꪵꪚꪚ": 4509,
      "ꪶꪎꪚꪙ": 4510,
      "ꪹꪠ꫁": 4511,
      "ꪹꪠꪷꪙ": 4512,
      "ꪹꪠꪸ꪿ꪉ": 4513,
      "ꪹꪠꪸ꪿ꪀ": 4514,
      "ꪹꪠꪷꪒ": 4515,
      "ꪹꪠꪸꪨꪀ": 4516,
      "ꪹꪏꪀ": 4517,
      "ꪹꪏ꪿ꪉ": 4518,
      "ꪹꪏꪱ꫁": 4519,
      "ꪹꪏꪸꪉ": 4520,
      "ꪹꪏꪸꪀ": 4521,
      "ꪹꪏꪸ꪿ꪉ": 4522,
      "ꪹꪏꪷꪉ": 4523,
      "ꪹꪏꪸ꫁ꪀ": 4524,
      "ꪹꪏꪷꪣ": 4525,
      "ꪹꪊꪉ": 4526,
      "ꪹꪊꪷ꪿": 4527,
      "ꪹꪊ꫁ꪉ": 4528,
      "ꪹꪊꪷꪒ": 4529,
      "ꪹꪊꪷ꪿ꪣ": 4530,
      "ꪹꪯꪀ": 4531,
      "ꪹꪯꪸꪉ": 4532,
      "ꪹꪯꪸ꫁ꪉ": 4533,
      "ꪹꪯꪷ꪿ꪥ": 4534,
      "ꪵꪠꪨ": 4535,
      "ꪵꪮ꫁ꪙ": 4536,
      "ꪵꪮꪎꪒ": 4537,
      "ꪹꪫꪸꪒ": 4538,
      "ꪹꪫꪸ꫁": 4539,
      "ꪹꪫꪸ꪿ꪉ": 4540,
      "ꪹꪫꪷꪥ": 4541,
      "ꪹꪉ꪿ꪉ": 4542,
      "ꪹꪙꪱ": 4543,
      "ꪹꪙꪷ꫁ꪉ": 4544,
      "ꪹꪝꪚ": 4545,
      "ꪹꪝ꫁ꪱ": 4546,
      "ꪹꪝꪷ꪿": 4547,
      "ꪹꪝꪱ꫁": 4548,
      "ꪹꪝꪸꪉ": 4549,
      "ꪹꪝꪷꪥ": 4550,
      "ꪹꪝꪷꪚ": 4551,
      "ꪹꪝꪷ꫁ꪉ": 4552,
      "ꪹꪝꪸꪩꪚ": 4553,
      "ꪏꪩꪲ": 4554,
      "ꪏꪩꪷ": 4555,
      "ꪏꪩꪾ": 4556,
      "ꪏꪩꪱꪒ": 4557,
      "ꪏꪩ꫁ꪮꪥ": 4558,
      "ꪏꪩꪱꪫ": 4559,
      "ꪏꪩꪲ꪿": 4560,
      "ꪏꪩꪱꪣ": 4561,
      "ꪏꪩꪮꪚ": 4562,
      "ꪏꪩ꪿ꪮꪙ": 4563,
      "ꪏꪩꪴꪚ": 4564,
      "ꪏꪩꪴ꫁ꪣ": 4565,
      "ꪏꪩ꫁ꪱꪣ": 4566,
      "ꪏꪩ꪿ꪮꪣ": 4567,
      "ꪹꪖ꫁": 4568,
      "ꪵꪝ꫁ꪙ": 4569,
      "ꪵꪬ꫁": 4570,
      "ꪵꪬꪨꪀ": 4571,
      "ꪶꪙꪙ": 4572,
      "ꪵꪕ꪿": 4573,
      "ꪵꪕ꪿ꪉ": 4574,
      "ꪵꪕ꫁ꪉ": 4575,
      "ꪁꪩꪱ": 4576,
      "ꪁꪩꪱꪚ": 4577,
      "ꪁꪩ꪿ꪽ": 4578,
      "ꪹꪢꪒ": 4579,
      "ꪹꪢ꫁ꪱ": 4580,
      "ꪹꪢꪷ꫁": 4581,
      "ꪹꪢꪷꪙ": 4582,
      "ꪹꪢꪸ꫁ꪙ": 4583,
      "ꪹꪢꪷ꪿ꪥ": 4584,
      "ꪹꪅꪸꪒ": 4585,
      "ꪹꪅꪸ꫁ꪙ": 4586,
      "ꪹꪅꪷꪀ": 4587,
      "ꪹꪅꪷ꫁ꪉ": 4588,
      "ꪣꪲ꪿ꪙ": 4589,
      "ꪣꪲ꫁ꪣ": 4590,
      "ꪵꪏꪚ": 4591,
      "ꪵꪏ꪿ꪫ": 4592,
      "ꪶꪊꪙ": 4593,
      "ꪶꪊ꫁": 4594,
      "ꪶꪊ꫁ꪉ": 4595,
      "ꪶꪊꪨ꪿": 4596,
      "ꪶꪬꪀ": 4597,
      "ꪶꪬ꫁ꪙ": 4598,
      "ꪹꪘ꪿ꪉ": 4599,
      "ꪹꪘ꪿ꪀ": 4600,
      "ꪹꪘꪷ꪿ꪣ": 4601,
      "ꪹꪘꪷꪣ": 4602,
      "ꪵꪊꪨ": 4603,
      "ꪵꪊꪫ": 4604,
      "ꪵꪊ꪿ꪙ": 4605,
      "ꪵꪊ꫁ꪙ": 4606,
      "ꪵꪊꪒꪒ": 4607,
      "ꪶꪨ꪿": 4608,
      "ꪶꪨ꪿ꪙ": 4609,
      "ꪶꪨ꫁ꪉ": 4610,
      "ꪹꪛꪸ꫁ꪫ": 4611,
      "ꪹꪡꪷ": 4612,
      "ꪹꪡ꫁": 4613,
      "ꪹꪡ꫁ꪙ": 4614,
      "ꪹꪡꪸꪉ": 4615,
      "ꪹꪡꪸ꫁": 4616,
      "ꪹꪡꪷꪉ": 4617,
      "ꪹꪡꪸ꫁ꪉ": 4618,
      "ꪹꪡ꪿ꪥ": 4619,
      "ꪹꪤꪷ꪿ꪀ": 4620,
      "ꪹꪤꪷ꪿ꪉ": 4621,
      "ꪶꪝꪀ": 4622,
      "ꪶꪝ꪿ꪉ": 4623,
      "ꪶꪝ꪿ꪙ": 4624,
      "ꪶꪝ꫁ꪉ": 4625,
      "ꪶꪝ꪿ꪣ": 4626,
      "ꪶꪝꪥꪒ": 4627,
      "ꪶꪝꪙꪀ": 4628,
      "ꪹꪒꪀ": 4629,
      "ꪹꪒꪷ": 4630,
      "ꪹꪒꪸꪚ": 4631,
      "ꪹꪒꪷꪥ": 4632,
      "ꪹꪒꪷ꫁ꪥ": 4633,
      "ꪵꪙꪒ": 4634,
      "ꪵꪋ꫁": 4635,
      "ꪵꪋ꫁ꪀ": 4636,
      "ꪵꪋꪩꪉ": 4637,
      "ꪵꪋꪉꪉ": 4638,
      "ꪶꪏꪥ": 4639,
      "ꪶꪏꪝꪀ": 4640,
      "ꪶꪯꪙ": 4641,
      "ꪵꪫꪚ": 4642,
      "ꪶꪋꪀ": 4643,
      "ꪕꪳ꪿ꪀ": 4644,
      "ꪶꪡꪀ": 4645,
      "ꪶꪢꪙ": 4646,
      "ꪶꪢ꪿": 4647,
      "ꪶꪢ꫁ꪣ": 4648,
      "ꪵꪯ꪿": 4649,
      "ꪵꪯ꪿ꪙ": 4650,
      "ꪵꪯꪩꪒ": 4651,
      "ꪵꪯꪩ꫁": 4652,
      "ꪶꪖ꪿ꪀ": 4653,
      "ꪶꪖ꪿ꪣ": 4654,
      "ꪶꪖꪨꪀ": 4655,
      "ꪹꪁꪷꪝꪥ": 4656,
      "ꪵꪨ꪿ꪀ": 4657,
      "ꪶꪒꪣ": 4658,
      "ꪶꪒ꪿ꪙ": 4659,
      "ꪶꪒ꫁ꪉ": 4660,
      "ꪹꪋꪷ꫁ꪙ": 4661,
      "ꪹꪋꪷ꫁ꪣ": 4662,
      "ꪵꪘꪫ": 4663,
      "ꪶꪥꪀ": 4664,
      "ꪶꪥꪣ": 4665,
      "ꪶꪉꪀ": 4666,
      "ꪶꪉ꪿ꪉ": 4667,
      "ꪶꪉ꪿ꪙ": 4668,
      "ꪵꪅꪚ": 4669,
      "ꪵꪉꪙ": 4670,
      "ꪵꪉ꫁ꪀ": 4671,
      "ꪵꪉ꪿ꪣ": 4672,
      "ꪹꪐꪸ꫁ꪙ": 4673,
      "ꪹꪐ꪿ꪥ": 4674,
      "ꪹꪐꪷꪒ": 4675,
      "ꪹꪐꪷꪣ": 4676,
      "ꪵꪪ꫁ꪙ": 4677,
      "ꪶꪅꪀ": 4678,
      "ꪶꪅꪉ": 4679,
      "ꪶꪑꪚ": 4680,
      "ꪹꪑ꪿ꪉ": 4681,
      "ꪹꪑꪸꪀ": 4682,
      "ꪹꪑꪷꪉ": 4683,
      "ꪹꪑꪸ꪿": 4684,
      "ꪹꪑꪷ꪿ꪣ": 4685,
      "ꪹꪑꪷꪀ": 4686,
      "ꪻꪢ꫁": 4687,
      "ꪵꪀꪫꪒ": 4688,
      "ꪵꪀꪫꪙ": 4689,
      "ꪶꪁꪩꪙ": 4690,
      "ꪶꪁꪩ꪿": 4691,
      "ꪀꪨꪽ": 4692,
      "ꪵꪖꪉ": 4693,
      "ꪵꪖ꫁": 4694,
      "ꪹꪚꪷꪣ": 4695,
      "ꪚꪲ꪿ꪣ": 4696,
      "ꪄꪫꪸꪙ": 4697,
      "ꪨꪴ꪿ꪥ": 4698,
      "ꪩꪲ꫁ꪀ": 4699,
      "ꪵꪡ꪿": 4700,
      "ꪛꪩꪮꪒ": 4701,
      "ꪼꪁ꪿": 4702,
      "ꪼꪩ꫁": 4703,
      "ꪵꪤꪒ": 4704,
      "ꪵꪤꪚ": 4705,
      "ꪹꪀꪸꪒꪚ": 4706,
      "ꪹꪮꪸꪨꪒ": 4707,
      "ꪹꪮꪸꪢꪚ": 4708,
      "ꪶꪈꪥ": 4709,
      "ꪶꪈ꪿ꪀ": 4710,
      "ꪵꪁꪫ꫁ꪙ": 4711,
      "ꪵꪁꪫ꪿ꪥ": 4712,
      "ꪹꪈꪸꪒ": 4713,
      "ꪼꪙ꪿": 4714,
      "ꪼꪙ꫁": 4715,
      "ꪹꪯꪸꪭꪀ": 4716,
      "ꪹꪒꪸ꪿ꪀh": 4717,
      "ꪁꪲ꫁ꪀ": 4718,
      "ꪮ꪿ꪱꪚ": 4719,
      "ꪵꪐꪀ": 4720,
      "ꪵꪐꪣ": 4721,
      "ꪶꪓ꪿ꪉ": 4722,
      "ꪶꪗꪒ": 4723,
      "ꪶꪗ꪿ꪉ": 4724,
      "ꪶꪗ꫁ꪉ": 4725,
      "ꪶꪗꪩꪒ": 4726,
      "ꪶꪗꪩ꫁": 4727,
      "ꪀꪔꪷ": 4728,
      "ꪀꪔꪰꪀ": 4729,
      "ꪩꪺꪣ": 4730,
      "ꪵꪗ꫁ꪫ": 4731,
      "ꪵꪢꪉ": 4732,
      "ꪵꪢ꪿": 4733,
      "ꪶꪐꪙ": 4734,
      "ꪶꪐ꪿ꪉ": 4735,
      "ꪶꪘꪣ": 4736,
      "ꪶꪘ꪿ꪙ": 4737,
      "ꪶꪘ꪿ꪥ": 4738,
      "ꪹꪯꪷꪥ꫁ꪀ": 4739,
      "ꪀ꪿ꪫꪱꪙ": 4740,
      "ꪅꪩ꪿ꪮꪉ": 4741,
      "ꪕꪙꪲꪙ": 4742,
      "ꪝꪙꪱꪫ": 4743,
      "ꪯꪥꪱꪣ": 4744,
      "ꪯꪥꪴꪣ": 4745,
      "ꪵꪑ꪿ꪙ": 4746,
      "ꪹꪗꪉ": 4747,
      "ꪹꪏꪷꪑꪀ": 4748,
      "ꪹꪛꪸꪑ꫁": 4749,
      "ꪁꪙꪱꪚ": 4750,
      "ꪎꪨꪸꪉ": 4751,
      "ꪎꪨꪾ꪿": 4752,
      "ꪎꪨꪳꪚ": 4753,
      "ꪎꪨꪲ꪿ꪀ": 4754,
      "ꪩꪉꪴ꫁ꪣ": 4755,
      "ꪩꪉꪴ꪿ꪉ": 4756,
      "ꪯꪩꪮꪒ": 4757,
      "ꪯꪩ꪿ꪺꪥ": 4758,
      "ꪵꪛꪚ": 4759,
      "ꪵꪛ꪿": 4760,
      "ꪹꪀꪸꪫꪙ": 4761,
      "ꪶꪜꪀ꫁ꪉ": 4762,
      "ꪵꪝꪙꪫ": 4763,
      "ꪼꪤ꫁": 4764,
      "ꪹꪋ꪿꪿ꪉ": 4765,
      "ꪹꪁꪸ꫁ꪩ": 4766,
      "ꪊꪨꪸ꪿ꪀ": 4767,
      "ꪏ꫁ꪱꪀ": 4768,
      "ꪘ꪿꪿ꪺꪥ": 4769,
      "ꪮꪾꪾꪾ꪿": 4770,
      "ꪵꪏꪣꪉ": 4771,
      "ꪵꪋꪣꪣ": 4772,
      "ꪄꪨꪾ": 4773,
      "ꪗꪩꪴ": 4774,
      "ꪝꪥ꫁ꪺ": 4775,
      "ꪝꪥꪮꪒ": 4776,
      "ꪵꪈꪉ": 4777,
      "ꪵꪈꪣ": 4778,
      "ꪵꪈ꫁ꪫ": 4779,
      "ꪹꪎꪸꪨꪒ": 4780,
      "ꪹꪎꪸꪨꪉ": 4781,
      "ꪹꪎꪸꪒꪙ": 4782,
      "ꪹꪔꪷꪨ꪿ꪙ": 4783,
      "ꪶꪄꪤꪉ": 4784,
      "ꪵꪜꪘꪀ": 4785,
      "ꪹꪊꪸꪨ꫁ꪙ": 4786,
      "ꪹꪖꪷꪨꪒ": 4787,
      "ꪶꪊꪜ꪿ꪉ": 4788,
      "kát": 4789,
      "ꪅꪑꪷ꫁": 4790,
      "ꪅꪑ꪿ꪱꪫ": 4791,
      "ꪎꪢꪴ꪿ꪙ": 4792,
      "ꪎꪢꪴ꪿ꪀ": 4793,
      "ꪏꪉꪰ꪿ꪉ": 4794,
      "ꪏꪉꪳ꫁": 4795,
      "ꪵꪎꪀꪀ": 4796,
      "ꪹꪯꪷꪩꪒ": 4797,
      "ꪹꪢꪷꪐꪚ": 4798,
      "ꪵꪏꪁꪉ": 4799,
      "ꪵꪏꪁ꪿ꪉ": 4800,
      "ꪵꪅꪙ꪿ꪉ": 4801,
      "ꪹꪗꪷ꫁ꪣ": 4802,
      "ꪹꪗꪷꪩ꫁": 4803,
      "bàng": 4804,
      "chua": 4805,
      "kóng": 4806,
      "kĩnh": 4807,
      "ꪄ꪿ꪫꪱꪙ": 4808,
      "ꪅꪙꪰ꫁ꪉ": 4809,
      "ꪋꪣꪮꪣ": 4810,
      "ꪏꪕꪴ꪿": 4811,
      "ꪖꪨꪮꪀ": 4812,
      "ꪙꪰ꪿꪿ꪉ": 4813,
      "ꪚꪰꪬ": 4814,
      "ꪛ꫁ꪩꪮꪀ": 4815,
      "ꪜꪨꪲꪚ": 4816,
      "ꪝꪰ꫁": 4817,
      "ꪫꪳ꫁ꪒ": 4818,
      "ꪮꪎꪳꪀ": 4819,
      "ꪹꪁꪸ꪿ꪫꪥ": 4820
    },
    "merges": [
      [
        "꫁",
        "ꪱ"
      ],
      [
        "꪿",
        "ꪱ"
      ],
      [
        "꪿",
        "ꪉ"
      ],
      [
        "꫁",
        "ꪮ"
      ],
      [
        "ꪱ",
        "ꪥ"
      ],
      [
        "꪿",
        "ꪮ"
      ],
      [
        "꪿",
        "ꪙ"
      ],
      [
        "ꪱ",
        "ꪉ"
      ],
      [
        "꫁",
        "ꪙ"
      ],
      [
        "ꪷ",
        "꪿"
      ],
      [
        "ꪱ",
        "ꪀ"
      ],
      [
        "꫁",
        "ꪉ"
      ],
      [
        "꪿",
        "ꪀ"
      ],
      [
        "ꪰ",
        "ꪀ"
      ],
      [
        "ꪮ",
        "ꪉ"
      ],
      [
        "ꪱ",
        "ꪙ"
      ],
      [
        "ꪮ",
        "ꪀ"
      ],
      [
        "ꪲ",
        "ꪙ"
      ],
      [
        "꫁",
        "ꪀ"
      ],
      [
        "ꪹ",
        "ꪚ"
      ],
      [
        "꪿",
        "ꪺ"
      ],
      [
        "꫁",
        "ꪫ"
      ],
      [
        "꫁",
        "ꪣ"
      ],
      [
        "ꪸ",
        "ꪒ"
      ],
      [
        "ꪮ",
        "ꪙ"
      ],
      [
        "ꪸ",
        "ꪙ"
      ],
      [
        "ꪴ",
        "꪿"
      ],
      [
        "ꪶ",
        "ꪀ"
      ],
      [
        "ꪲ",
        "ꪒ"
      ],
      [
        "ꪾ",
        "꫁"
      ],
      [
        "ꪱ",
        "ꪒ"
      ],
      [
        "ꪱ",
        "꫁"
      ],
      [
        "ꪹ",
        "ꪭ"
      ],
      [
        "ꪹ",
        "ꪄ"
      ],
      [
        "꪿ꪱ",
        "ꪉ"
      ],
      [
        "ꪾ",
        "ꪚ"
      ],
      [
        "ꪱ",
        "ꪚ"
      ],
      [
        "꫁ꪮ",
        "ꪥ"
      ],
      [
        "ꪰ",
        "ꪉ"
      ],
      [
        "꫁",
        "ꪺ"
      ],
      [
        "ꪮ",
        "ꪒ"
      ],
      [
        "ꪱ",
        "ꪫ"
      ],
      [
        "ꪲ",
        "꪿"
      ],
      [
        "ꪷ",
        "꫁"
      ],
      [
        "ꪵ",
        "ꪀ"
      ],
      [
        "꫁ꪱ",
        "ꪥ"
      ],
      [
        "ꪻ",
        "ꪊ"
      ],
      [
        "ꪱ",
        "ꪣ"
      ],
      [
        "ꪹ",
        "ꪎ"
      ],
      [
        "ꪶ",
        "ꪁ"
      ],
      [
        "ꪰ",
        "ꪒ"
      ],
      [
        "꫁ꪮ",
        "ꪉ"
      ],
      [
        "ꪶ",
        "ꪎ"
      ],
      [
        "꫁ꪱ",
        "ꪙ"
      ],
      [
        "ꪹ",
        "ꪀ"
      ],
      [
        "ꪮ",
        "ꪚ"
      ],
      [
        "ꪶ",
        "ꪔ"
      ],
      [
        "꪿ꪮ",
        "ꪙ"
      ],
      [
        "ꪹ",
        "ꪜ"
      ],
      [
        "ꪸ",
        "ꪉ"
      ],
      [
        "ꪵ",
        "ꪄ"
      ],
      [
        "꫁",
        "ꪽ"
      ],
      [
        "ꪴ",
        "꫁"
      ],
      [
        "ꪹ",
        "ꪋ"
      ],
      [
        "꪿ꪮ",
        "ꪉ"
      ],
      [
        "ꪶ",
        "ꪩ"
      ],
      [
        "ꪹ",
        "ꪣ"
      ],
      [
        "ꪘ",
        "꫁ꪱ"
      ],
      [
        "꪿",
        "ꪫ"
      ],
      [
        "꪿ꪱ",
        "ꪫ"
      ],
      [
        "ꪴ",
        "ꪀ"
      ],
      [
        "ꪮ",
        "ꪣ"
      ],
      [
        "꫁ꪮ",
        "ꪙ"
      ],
      [
        "ꪹ",
        "ꪁ"
      ],
      [
        "ꪙ",
        "ꪾ꫁"
      ],
      [
        "ꪹ",
        "ꪨ"
      ],
      [
        "ꪵ",
        "ꪣ"
      ],
      [
        "ꪢ",
        "ꪱꪀ"
      ],
      [
        "ꪴ",
        "ꪒ"
      ],
      [
        "ꪺ",
        "ꪉ"
      ],
      [
        "ꪹ",
        "ꪮ"
      ],
      [
        "ꪰ",
        "꪿ꪉ"
      ],
      [
        "ꪲ",
        "꫁"
      ],
      [
        "ꪹ",
        "ꪥ"
      ],
      [
        "꫁ꪱ",
        "ꪫ"
      ],
      [
        "ꪺ",
        "ꪙ"
      ],
      [
        "꫁ꪱ",
        "ꪉ"
      ],
      [
        "ꪹ",
        "ꪩ"
      ],
      [
        "ꪱ",
        "꪿"
      ],
      [
        "꪿ꪱ",
        "ꪙ"
      ],
      [
        "ꪵ",
        "ꪁ"
      ],
      [
        "ꪲ",
        "ꪉ"
      ],
      [
        "ꪶ",
        "ꪚ"
      ],
      [
        "꪿ꪱ",
        "ꪥ"
      ],
      [
        "ꪣ",
        "ꪳ"
      ],
      [
        "ꪵ",
        "ꪭ"
      ],
      [
        "ꪹ",
        "ꪔ"
      ],
      [
        "ꪾ",
        "꪿"
      ],
      [
        "ꪬ",
        "ꪺ"
      ],
      [
        "ꪹ",
        "ꪕ"
      ],
      [
        "ꪹꪭ",
        "ꪙ"
      ],
      [
        "ꪀ",
        "ꪲꪙ"
      ],
      [
        "ꪵ",
        "ꪎ"
      ],
      [
        "꪿ꪮ",
        "ꪥ"
      ],
      [
        "ꪼ",
        "ꪜ"
      ],
      [
        "ꪁ",
        "ꪫ"
      ],
      [
        "ꪳ",
        "ꪙ"
      ],
      [
        "꪿",
        "ꪽ"
      ],
      [
        "ꪜ",
        "ꪲ"
      ],
      [
        "ꪵ",
        "ꪒ"
      ],
      [
        "ꪶ",
        "ꪕ"
      ],
      [
        "ꪔ",
        "ꪱ"
      ],
      [
        "ꪮ",
        "ꪥ"
      ],
      [
        "ꪸ",
        "ꪀ"
      ],
      [
        "ꪰ",
        "꫁ꪉ"
      ],
      [
        "ꪵ",
        "ꪩ"
      ],
      [
        "ꪹꪄ",
        "ꪱ꫁"
      ],
      [
        "ꪶ",
        "ꪄ"
      ],
      [
        "ꪷ",
        "ꪙ"
      ],
      [
        "ꪹ",
        "ꪬ"
      ],
      [
        "ꪲ",
        "ꪚ"
      ],
      [
        "ꪳ",
        "꪿"
      ],
      [
        "ꪴ",
        "ꪙ"
      ],
      [
        "ꪴ",
        "ꪚ"
      ],
      [
        "꫁ꪮ",
        "ꪣ"
      ],
      [
        "ꪶ",
        "ꪭ"
      ],
      [
        "ꪸ",
        "ꪣ"
      ],
      [
        "ꪜ",
        "ꪱꪀ"
      ],
      [
        "ꪸ",
        "꫁"
      ],
      [
        "ꪴ",
        "ꪣ"
      ],
      [
        "ꪵ",
        "ꪜ"
      ],
      [
        "ꪸ",
        "꪿ꪉ"
      ],
      [
        "꪿",
        "ꪣ"
      ],
      [
        "ꪵ",
        "ꪔ"
      ],
      [
        "ꪹꪥ",
        "ꪸꪒ"
      ],
      [
        "ꪲ",
        "꪿ꪉ"
      ],
      [
        "ꪳ",
        "ꪒ"
      ],
      [
        "ꪙ",
        "꫁ꪮꪥ"
      ],
      [
        "ꪮ",
        "ꪮꪀ"
      ],
      [
        "ꪵ",
        "ꪚ"
      ],
      [
        "ꪷ",
        "ꪉ"
      ],
      [
        "ꪶꪎ",
        "ꪚ"
      ],
      [
        "ꪔ",
        "ꪱꪥ"
      ],
      [
        "ꪳ",
        "꫁ꪙ"
      ],
      [
        "ꪸ",
        "ꪚ"
      ],
      [
        "ꪹꪚ",
        "꪿ꪱ"
      ],
      [
        "ꪸ",
        "꫁ꪙ"
      ],
      [
        "ꪹ",
        "ꪠ"
      ],
      [
        "ꪺ",
        "ꪒ"
      ],
      [
        "ꪹ",
        "ꪏ"
      ],
      [
        "ꪼ",
        "ꪀ"
      ],
      [
        "꫁",
        "ꪥ"
      ],
      [
        "ꪕ",
        "ꪱꪉ"
      ],
      [
        "ꪹ",
        "ꪊ"
      ],
      [
        "ꪹ",
        "ꪯ"
      ],
      [
        "ꪴ",
        "꫁ꪣ"
      ],
      [
        "꫁ꪱ",
        "ꪣ"
      ],
      [
        "ꪲ",
        "꫁ꪙ"
      ],
      [
        "ꪸ",
        "꫁ꪉ"
      ],
      [
        "ꪵ",
        "ꪠ"
      ],
      [
        "ꪵ",
        "ꪮ"
      ],
      [
        "ꪸ",
        "ꪫ"
      ],
      [
        "ꪹ",
        "ꪫ"
      ],
      [
        "ꪎ",
        "ꪳ"
      ],
      [
        "꫁ꪺ",
        "ꪥ"
      ],
      [
        "ꪲ",
        "꫁ꪫ"
      ],
      [
        "ꪴ",
        "ꪉ"
      ],
      [
        "ꪴ",
        "꪿ꪙ"
      ],
      [
        "ꪹ",
        "ꪉ"
      ],
      [
        "ꪷ꪿",
        "ꪀ"
      ],
      [
        "꪿ꪺ",
        "ꪥ"
      ],
      [
        "ꪶꪁ",
        "ꪙ"
      ],
      [
        "ꪁꪫ",
        "ꪱꪣ"
      ],
      [
        "꪿ꪺ",
        "ꪉ"
      ],
      [
        "ꪴ꪿",
        "ꪣ"
      ],
      [
        "ꪀ",
        "ꪱꪉ"
      ],
      [
        "ꪴ",
        "꪿ꪀ"
      ],
      [
        "ꪹ",
        "ꪙ"
      ],
      [
        "ꪹ",
        "ꪝ"
      ],
      [
        "ꪴ",
        "꪿ꪉ"
      ],
      [
        "ꪻ",
        "ꪎ"
      ],
      [
        "ꪀ",
        "ꪱꪥ"
      ],
      [
        "꪿ꪮ",
        "ꪣ"
      ],
      [
        "ꪏ",
        "ꪩ"
      ],
      [
        "ꪶ",
        "ꪜ"
      ],
      [
        "ꪶꪀ",
        "꪿ꪀ"
      ],
      [
        "ꪫ",
        "꪿ꪱ"
      ],
      [
        "ꪳ",
        "꪿ꪙ"
      ],
      [
        "ꪶ",
        "ꪠ"
      ],
      [
        "ꪹ",
        "ꪖ"
      ],
      [
        "ꪵ",
        "ꪝ"
      ],
      [
        "ꪵ",
        "ꪬ"
      ],
      [
        "ꪶ",
        "ꪙ"
      ],
      [
        "ꪹꪣ",
        "ꪉ"
      ],
      [
        "ꪒ",
        "ꪲꪙ"
      ],
      [
        "ꪺ",
        "ꪀ"
      ],
      [
        "ꪼ",
        "ꪣ"
      ],
      [
        "ꪁ",
        "ꪾ"
      ],
      [
        "ꪩ",
        "ꪴꪀ"
      ],
      [
        "ꪳ",
        "ꪣ"
      ],
      [
        "ꪵ",
        "ꪕ"
      ],
      [
        "꪿ꪱ",
        "ꪣ"
      ],
      [
        "ꪒ",
        "ꪲ"
      ],
      [
        "ꪡ",
        "꫁ꪱ"
      ],
      [
        "ꪨ",
        "ꪰꪉ"
      ],
      [
        "ꪷ",
        "꪿ꪉ"
      ],
      [
        "꪿",
        "ꪥ"
      ],
      [
        "ꪼꪣ",
        "꫁"
      ],
      [
        "ꪁ",
        "ꪩ"
      ],
      [
        "ꪜ",
        "ꪱ"
      ],
      [
        "ꪶ",
        "ꪮ"
      ],
      [
        "ꪵꪣ",
        "꪿"
      ],
      [
        "ꪎ",
        "ꪮꪉ"
      ],
      [
        "ꪤ",
        "ꪴ꪿"
      ],
      [
        "ꪵꪭ",
        "ꪉ"
      ],
      [
        "ꪬ",
        "꫁"
      ],
      [
        "ꪬ",
        "ꪮꪣ"
      ],
      [
        "ꪹ",
        "ꪢ"
      ],
      [
        "ꪁ",
        "ꪳꪙ"
      ],
      [
        "ꪣ",
        "ꪷ꪿"
      ],
      [
        "ꪹ",
        "ꪅ"
      ],
      [
        "ꪼ",
        "ꪎ"
      ],
      [
        "ꪶꪔ",
        "꪿ꪀ"
      ],
      [
        "ꪣ",
        "ꪲ"
      ],
      [
        "ꪶ",
        "ꪣ"
      ],
      [
        "ꪷ",
        "ꪥ"
      ],
      [
        "ꪼ",
        "ꪒ"
      ],
      [
        "ꪹꪜ",
        "ꪸꪙ"
      ],
      [
        "ꪼꪀ",
        "꪿"
      ],
      [
        "ꪣ",
        "ꪽ"
      ],
      [
        "꪿ꪺ",
        "ꪙ"
      ],
      [
        "ꪵꪒ",
        "ꪉ"
      ],
      [
        "ꪣ",
        "ꪱ"
      ],
      [
        "ꪳ",
        "꪿ꪉ"
      ],
      [
        "ꪵ",
        "ꪏ"
      ],
      [
        "ꪶ",
        "ꪊ"
      ],
      [
        "ꪸ",
        "꪿ꪀ"
      ],
      [
        "ꪁ",
        "꪿ꪱ"
      ],
      [
        "ꪮ",
        "꪿ꪮꪙ"
      ],
      [
        "ꪶ",
        "ꪬ"
      ],
      [
        "ꪹ",
        "ꪘ"
      ],
      [
        "ꪎ",
        "ꪴꪒ"
      ],
      [
        "ꪵ",
        "ꪊ"
      ],
      [
        "ꪶ",
        "ꪨ"
      ],
      [
        "ꪹ",
        "ꪛ"
      ],
      [
        "ꪼ",
        "ꪄ"
      ],
      [
        "ꪐ",
        "꪿"
      ],
      [
        "ꪔ",
        "ꪷ꪿"
      ],
      [
        "ꪹ",
        "ꪡ"
      ],
      [
        "ꪹ",
        "ꪤ"
      ],
      [
        "꫁ꪮ",
        "ꪀ"
      ],
      [
        "ꪹꪄ",
        "꫁ꪱ"
      ],
      [
        "ꪼꪒ",
        "꫁"
      ],
      [
        "ꪁ",
        "ꪷ"
      ],
      [
        "ꪎ",
        "ꪱꪥ"
      ],
      [
        "ꪔ",
        "ꪲꪙ"
      ],
      [
        "ꪶ",
        "ꪝ"
      ],
      [
        "ꪹ",
        "ꪒ"
      ],
      [
        "ꪼ",
        "ꪡ"
      ],
      [
        "ꪣꪳ",
        "꫁"
      ],
      [
        "ꪄ",
        "ꪲ꫁"
      ],
      [
        "ꪵ",
        "ꪙ"
      ],
      [
        "ꪸ",
        "꪿"
      ],
      [
        "ꪶꪙ",
        "꫁ꪀ"
      ],
      [
        "ꪚ",
        "ꪮꪀ"
      ],
      [
        "ꪠ",
        "ꪰꪀ"
      ],
      [
        "ꪩ",
        "꫁ꪱ"
      ],
      [
        "ꪮ",
        "ꪱꪥ"
      ],
      [
        "ꪚ",
        "꪿ꪱꪫ"
      ],
      [
        "ꪫ",
        "ꪸꪀ"
      ],
      [
        "ꪵ",
        "ꪋ"
      ],
      [
        "ꪷ",
        "ꪒ"
      ],
      [
        "ꪸ",
        "꪿ꪙ"
      ],
      [
        "ꪹꪎ",
        "꫁"
      ],
      [
        "ꪀ",
        "ꪮꪉ"
      ],
      [
        "ꪙ",
        "ꪮꪙ"
      ],
      [
        "ꪫ",
        "ꪱꪉ"
      ],
      [
        "ꪶ",
        "ꪏ"
      ],
      [
        "ꪶ",
        "ꪯ"
      ],
      [
        "ꪸ",
        "꪿ꪫ"
      ],
      [
        "ꪵꪀ",
        "꪿"
      ],
      [
        "ꪄ",
        "ꪱ"
      ],
      [
        "ꪝ",
        "ꪴ"
      ],
      [
        "ꪭ",
        "꫁ꪱꪥ"
      ],
      [
        "ꪵ",
        "ꪫ"
      ],
      [
        "꪿ꪱ",
        "ꪀ"
      ],
      [
        "ꪲ꪿",
        "ꪫ"
      ],
      [
        "ꪶꪩ",
        "ꪉ"
      ],
      [
        "ꪚ",
        "꫁ꪱ"
      ],
      [
        "ꪩ",
        "ꪒ"
      ],
      [
        "ꪮ",
        "꫁ꪱꪥ"
      ],
      [
        "ꪶ",
        "ꪋ"
      ],
      [
        "ꪹꪮ",
        "ꪱ"
      ],
      [
        "ꪹꪉ",
        "ꪷꪙ"
      ],
      [
        "ꪕ",
        "ꪳ"
      ],
      [
        "ꪬ",
        "ꪱ"
      ],
      [
        "ꪮ",
        "꫁ꪱ"
      ],
      [
        "ꪲ",
        "ꪣ"
      ],
      [
        "ꪚ",
        "꫁ꪱꪙ"
      ],
      [
        "ꪨ",
        "ꪱꪥ"
      ],
      [
        "ꪳ",
        "ꪀ"
      ],
      [
        "ꪶꪀ",
        "ꪉ"
      ],
      [
        "ꪻꪎ",
        "꪿"
      ],
      [
        "ꪀ",
        "꫁ꪱ"
      ],
      [
        "ꪎ",
        "ꪱꪫ"
      ],
      [
        "ꪲ",
        "ꪫ"
      ],
      [
        "ꪲ",
        "꪿ꪙ"
      ],
      [
        "ꪶ",
        "ꪡ"
      ],
      [
        "ꪶꪀ",
        "꫁ꪙ"
      ],
      [
        "ꪁ",
        "ꪱ"
      ],
      [
        "ꪕ",
        "ꪷ꪿"
      ],
      [
        "ꪬ",
        "ꪴ"
      ],
      [
        "ꪳ",
        "ꪉ"
      ],
      [
        "ꪴ",
        "꫁ꪉ"
      ],
      [
        "ꪶ",
        "ꪢ"
      ],
      [
        "ꪷ",
        "ꪚ"
      ],
      [
        "ꪷ",
        "꪿ꪙ"
      ],
      [
        "ꪻ",
        "ꪬ꫁"
      ],
      [
        "ꪎ",
        "ꪸ"
      ],
      [
        "ꪚ",
        "ꪰꪀ"
      ],
      [
        "ꪝ",
        "ꪷ꪿"
      ],
      [
        "ꪵ",
        "ꪯ"
      ],
      [
        "ꪼ",
        "ꪢ"
      ],
      [
        "꫁ꪺ",
        "ꪉ"
      ],
      [
        "꫁ꪺ",
        "ꪙ"
      ],
      [
        "ꪀ",
        "ꪽ"
      ],
      [
        "ꪁ",
        "ꪮꪚ"
      ],
      [
        "ꪙ",
        "ꪱ"
      ],
      [
        "ꪝ",
        "ꪱꪙ"
      ],
      [
        "ꪠ",
        "꫁ꪱꪥ"
      ],
      [
        "ꪤ",
        "ꪱ"
      ],
      [
        "ꪨ",
        "ꪺꪉ"
      ],
      [
        "ꪩ",
        "ꪱꪥ"
      ],
      [
        "ꪭ",
        "ꪴ꫁"
      ],
      [
        "ꪴ",
        "꫁ꪀ"
      ],
      [
        "ꪶ",
        "ꪖ"
      ],
      [
        "ꪶ",
        "ꪛ"
      ],
      [
        "ꪼ",
        "ꪕ"
      ],
      [
        "ꪴ꫁",
        "ꪥ"
      ],
      [
        "ꪜꪲ",
        "꫁ꪙ"
      ],
      [
        "ꪹꪙ",
        "꫁"
      ],
      [
        "ꪶꪮ",
        "꪿ꪉ"
      ],
      [
        "ꪄ",
        "ꪱꪒ"
      ],
      [
        "ꪔ",
        "ꪴ"
      ],
      [
        "ꪙ",
        "꫁ꪮꪉ"
      ],
      [
        "ꪙ",
        "ꪰ꪿ꪉ"
      ],
      [
        "ꪣ",
        "ꪲꪒ"
      ],
      [
        "ꪫ",
        "ꪱ"
      ],
      [
        "ꪼ",
        "ꪫ"
      ],
      [
        "ꪹꪁ",
        "ꪷ"
      ],
      [
        "ꪹꪯ",
        "ꪸꪣ"
      ],
      [
        "ꪼꪎ",
        "꫁"
      ],
      [
        "ꪁ",
        "ꪱꪚ"
      ],
      [
        "ꪁ",
        "ꪰꪒ"
      ],
      [
        "ꪎ",
        "ꪸꪉ"
      ],
      [
        "ꪚ",
        "ꪲꪒ"
      ],
      [
        "ꪝ",
        "ꪲ꪿"
      ],
      [
        "ꪢ",
        "ꪷ꫁"
      ],
      [
        "ꪩ",
        "ꪱꪉ"
      ],
      [
        "ꪵ",
        "ꪨ"
      ],
      [
        "ꪶ",
        "ꪒ"
      ],
      [
        "ꪹꪎ",
        "ꪷ꪿ꪀ"
      ],
      [
        "ꪵꪄ",
        "ꪙ"
      ],
      [
        "ꪹꪋ",
        "ꪷ"
      ],
      [
        "ꪶꪚ",
        "ꪉ"
      ],
      [
        "ꪎ",
        "ꪰꪀ"
      ],
      [
        "ꪝ",
        "ꪲ"
      ],
      [
        "ꪸ",
        "꫁ꪀ"
      ],
      [
        "ꪼ",
        "ꪭ"
      ],
      [
        "ꪵꪄ",
        "ꪉ"
      ],
      [
        "ꪹꪫ",
        "ꪸꪙ"
      ],
      [
        "ꪼꪫ",
        "꫁"
      ],
      [
        "ꪀ",
        "꪿ꪱꪥ"
      ],
      [
        "ꪄ",
        "ꪳ꫁ꪙ"
      ],
      [
        "ꪒ",
        "ꪾ"
      ],
      [
        "ꪠ",
        "ꪱ"
      ],
      [
        "ꪢ",
        "ꪴ"
      ],
      [
        "ꪵ",
        "ꪘ"
      ],
      [
        "ꪶ",
        "ꪤ"
      ],
      [
        "ꪶ",
        "ꪥ"
      ],
      [
        "ꪹꪚ",
        "ꪙ"
      ],
      [
        "ꪹꪨ",
        "ꪉ"
      ],
      [
        "ꪹꪕ",
        "ꪸꪉ"
      ],
      [
        "ꪀ",
        "꫁ꪫ"
      ],
      [
        "ꪀ",
        "꪿ꪱꪉ"
      ],
      [
        "ꪀ",
        "ꪺꪉ"
      ],
      [
        "ꪁ",
        "ꪽ"
      ],
      [
        "ꪁ",
        "ꪷ꫁"
      ],
      [
        "ꪄ",
        "ꪱꪫ"
      ],
      [
        "ꪔ",
        "꪿ꪱꪉ"
      ],
      [
        "ꪜ",
        "꪿ꪱ"
      ],
      [
        "ꪳ",
        "꫁"
      ],
      [
        "ꪳ",
        "꫁ꪀ"
      ],
      [
        "ꪶ",
        "ꪉ"
      ],
      [
        "ꪸ",
        "꫁ꪫ"
      ],
      [
        "ꪻ",
        "ꪒ"
      ],
      [
        "ꪻ",
        "ꪐ꪿"
      ],
      [
        "ꪵꪀ",
        "꪿ꪙ"
      ],
      [
        "ꪹꪋ",
        "꪿ꪉ"
      ],
      [
        "ꪹꪁ",
        "ꪷ꪿"
      ],
      [
        "ꪵꪣ",
        "ꪉ"
      ],
      [
        "ꪜꪲ",
        "꪿ꪙ"
      ],
      [
        "ꪀ",
        "ꪤ"
      ],
      [
        "ꪀ",
        "ꪫ"
      ],
      [
        "ꪄ",
        "ꪷ"
      ],
      [
        "ꪊ",
        "ꪾꪚ"
      ],
      [
        "ꪕ",
        "ꪾꪚ"
      ],
      [
        "ꪙ",
        "ꪽ"
      ],
      [
        "ꪚ",
        "ꪱꪙ"
      ],
      [
        "ꪠ",
        "ꪲ"
      ],
      [
        "ꪮ",
        "꪿ꪱꪙ"
      ],
      [
        "ꪮ",
        "ꪲ꫁ꪙ"
      ],
      [
        "ꪲ",
        "ꪀ"
      ],
      [
        "ꪳ",
        "ꪚ"
      ],
      [
        "ꪵ",
        "ꪅ"
      ],
      [
        "ꪻ",
        "ꪚ"
      ],
      [
        "ꪵꪄ",
        "ꪫ"
      ],
      [
        "ꪵꪒ",
        "ꪒ"
      ],
      [
        "ꪀ",
        "ꪷ"
      ],
      [
        "ꪁ",
        "ꪾ꫁"
      ],
      [
        "ꪄ",
        "꫁ꪱ"
      ],
      [
        "ꪅ",
        "ꪰꪀ"
      ],
      [
        "ꪊ",
        "ꪰꪀ"
      ],
      [
        "ꪋ",
        "꪿ꪺ"
      ],
      [
        "ꪐ",
        "꫁ꪱ"
      ],
      [
        "ꪢ",
        "ꪱ"
      ],
      [
        "ꪨ",
        "꫁ꪱ"
      ],
      [
        "ꪩ",
        "ꪱꪒ"
      ],
      [
        "ꪩ",
        "ꪱꪣ"
      ],
      [
        "ꪭ",
        "ꪴ꪿ꪉ"
      ],
      [
        "ꪲ",
        "꫁ꪉ"
      ],
      [
        "ꪵ",
        "ꪉ"
      ],
      [
        "ꪵ",
        "ꪮꪚ"
      ],
      [
        "ꪶꪀ",
        "꪿ꪉ"
      ],
      [
        "꫁ꪺ",
        "ꪣ"
      ],
      [
        "ꪹꪢ",
        "ꪸꪒ"
      ],
      [
        "ꪄ",
        "ꪮꪉ"
      ],
      [
        "ꪋ",
        "ꪱ"
      ],
      [
        "ꪒ",
        "ꪾꪚ"
      ],
      [
        "ꪓ",
        "ꪙ"
      ],
      [
        "ꪔ",
        "ꪰ꫁ꪉ"
      ],
      [
        "ꪘ",
        "ꪰꪀ"
      ],
      [
        "ꪜ",
        "ꪲꪒ"
      ],
      [
        "ꪢ",
        "꫁ꪱ"
      ],
      [
        "ꪣ",
        "꫁ꪱ"
      ],
      [
        "ꪩ",
        "ꪺꪉ"
      ],
      [
        "ꪬ",
        "ꪱꪉ"
      ],
      [
        "ꪲ",
        "꫁ꪣ"
      ],
      [
        "ꪵ",
        "ꪥ"
      ],
      [
        "ꪹ",
        "ꪐ"
      ],
      [
        "ꪼ",
        "ꪅ"
      ],
      [
        "ꪹꪚ",
        "ꪱ꪿"
      ],
      [
        "ꪶꪁ",
        "ꪣ"
      ],
      [
        "ꪶꪎ",
        "꫁ꪣ"
      ],
      [
        "ꪁꪫ",
        "ꪱꪥ"
      ],
      [
        "ꪁ",
        "ꪺꪙ"
      ],
      [
        "ꪒ",
        "ꪲꪒ"
      ],
      [
        "ꪒ",
        "ꪴꪀ"
      ],
      [
        "ꪔ",
        "ꪱꪣ"
      ],
      [
        "ꪙ",
        "꫁ꪽ"
      ],
      [
        "ꪣ",
        "ꪺ"
      ],
      [
        "ꪭ",
        "ꪱꪉ"
      ],
      [
        "ꪵ",
        "ꪪ"
      ],
      [
        "ꪵ",
        "ꪮꪀ"
      ],
      [
        "ꪸ",
        "꫁ꪣ"
      ],
      [
        "ꪷ꪿",
        "ꪣ"
      ],
      [
        "ꪵꪩ",
        "꫁ꪫ"
      ],
      [
        "ꪹꪊ",
        "꫁ꪱ"
      ],
      [
        "ꪎꪳ",
        "ꪚ"
      ],
      [
        "ꪼꪅ",
        "꫁"
      ],
      [
        "ꪀ",
        "꪿ꪱ"
      ],
      [
        "ꪀ",
        "꪿ꪮꪙ"
      ],
      [
        "ꪀ",
        "꫁ꪺꪥ"
      ],
      [
        "ꪊ",
        "ꪸ꫁"
      ],
      [
        "ꪏ",
        "ꪳ꪿"
      ],
      [
        "ꪔ",
        "ꪽ"
      ],
      [
        "ꪔ",
        "꪿ꪮꪙ"
      ],
      [
        "ꪘ",
        "ꪰ꫁ꪉ"
      ],
      [
        "ꪚ",
        "꪿ꪱ"
      ],
      [
        "ꪚ",
        "꪿ꪮꪉ"
      ],
      [
        "ꪚ",
        "ꪴꪙ"
      ],
      [
        "ꪠ",
        "ꪴ꫁"
      ],
      [
        "ꪣ",
        "꪿ꪺꪙ"
      ],
      [
        "ꪨ",
        "ꪷ"
      ],
      [
        "ꪩ",
        "ꪱ"
      ],
      [
        "ꪮ",
        "꫁ꪮꪥ"
      ],
      [
        "ꪵ",
        "ꪓꪙ"
      ],
      [
        "꪿ꪮ",
        "ꪀ"
      ],
      [
        "ꪹꪎ",
        "ꪱ"
      ],
      [
        "ꪵꪄ",
        "ꪀ"
      ],
      [
        "꪿ꪫ",
        "ꪱ"
      ],
      [
        "ꪹꪨ",
        "ꪱ꫁"
      ],
      [
        "ꪶꪭ",
        "ꪣ"
      ],
      [
        "ꪵꪔ",
        "ꪀ"
      ],
      [
        "ꪶꪣ",
        "ꪙ"
      ],
      [
        "ꪹꪤ",
        "ꪸꪙ"
      ],
      [
        "ꪀ",
        "ꪾ"
      ],
      [
        "ꪀ",
        "ꪾꪚ"
      ],
      [
        "ꪀ",
        "ꪮꪚ"
      ],
      [
        "ꪁ",
        "ꪮꪙ"
      ],
      [
        "ꪁ",
        "ꪾꪚ"
      ],
      [
        "ꪄ",
        "ꪮꪒ"
      ],
      [
        "ꪈ",
        "ꪾ꪿"
      ],
      [
        "ꪊ",
        "ꪲ꪿"
      ],
      [
        "ꪎ",
        "ꪴ꪿"
      ],
      [
        "ꪒ",
        "꪿ꪮꪙ"
      ],
      [
        "ꪚ",
        "ꪷ"
      ],
      [
        "ꪚ",
        "ꪱꪉ"
      ],
      [
        "ꪝ",
        "ꪾꪚ"
      ],
      [
        "ꪩ",
        "꫁ꪱꪫ"
      ],
      [
        "ꪭ",
        "ꪮꪒ"
      ],
      [
        "ꪲ",
        "꪿ꪀ"
      ],
      [
        "ꪳ",
        "꪿ꪀ"
      ],
      [
        "ꪶ",
        "ꪅ"
      ],
      [
        "ꪶ",
        "ꪑ"
      ],
      [
        "ꪹ",
        "ꪑ"
      ],
      [
        "ꪺ",
        "ꪥ"
      ],
      [
        "ꪻ",
        "ꪢ"
      ],
      [
        "꪿ꪺ",
        "ꪣ"
      ],
      [
        "ꪶꪎ",
        "ꪣ"
      ],
      [
        "ꪶꪩ",
        "ꪒ"
      ],
      [
        "ꪶꪩ",
        "ꪣ"
      ],
      [
        "ꪹꪣ",
        "ꪱ"
      ],
      [
        "ꪵꪣ",
        "꪿ꪙ"
      ],
      [
        "ꪶꪄ",
        "ꪙ"
      ],
      [
        "ꪶꪄ",
        "ꪣ"
      ],
      [
        "ꪶꪠ",
        "ꪙ"
      ],
      [
        "ꪀ",
        "ꪺꪙ"
      ],
      [
        "ꪁ",
        "ꪴ"
      ],
      [
        "ꪊ",
        "ꪾ"
      ],
      [
        "ꪎ",
        "꪿ꪱꪉ"
      ],
      [
        "ꪎ",
        "ꪰꪉ"
      ],
      [
        "ꪎ",
        "꫁ꪱꪉ"
      ],
      [
        "ꪎ",
        "꫁ꪺꪉ"
      ],
      [
        "ꪑ",
        "ꪲꪉ"
      ],
      [
        "ꪒ",
        "ꪴ"
      ],
      [
        "ꪜ",
        "ꪱꪉ"
      ],
      [
        "ꪜ",
        "ꪰꪉ"
      ],
      [
        "ꪝ",
        "ꪷ"
      ],
      [
        "ꪝ",
        "ꪽ"
      ],
      [
        "ꪠ",
        "꫁ꪱ"
      ],
      [
        "ꪠ",
        "ꪲꪒ"
      ],
      [
        "ꪡ",
        "ꪳ꫁ꪙ"
      ],
      [
        "ꪥ",
        "ꪱꪀ"
      ],
      [
        "ꪨ",
        "ꪱꪀ"
      ],
      [
        "ꪩ",
        "ꪰꪀ"
      ],
      [
        "ꪬ",
        "ꪽ"
      ],
      [
        "ꪬ",
        "ꪴ꪿ꪙ"
      ],
      [
        "ꪺ",
        "ꪚ"
      ],
      [
        "ꪼ",
        "ꪏ"
      ],
      [
        "ꪼ",
        "ꪖ"
      ],
      [
        "ꪵꪀ",
        "ꪫ"
      ],
      [
        "ꪵꪀ",
        "꫁"
      ],
      [
        "ꪶꪁ",
        "ꪩ"
      ],
      [
        "ꪵꪄ",
        "꫁ꪫ"
      ],
      [
        "ꪹꪩ",
        "ꪒ"
      ],
      [
        "ꪶꪕ",
        "꫁ꪀ"
      ],
      [
        "ꪹꪊ",
        "ꪸꪚ"
      ],
      [
        "ꪀ",
        "ꪒ"
      ],
      [
        "ꪀ",
        "ꪨ"
      ],
      [
        "ꪀ",
        "ꪷ꪿"
      ],
      [
        "ꪀ",
        "ꪱꪒ"
      ],
      [
        "ꪀ",
        "ꪱꪚ"
      ],
      [
        "ꪀ",
        "꫁ꪮꪉ"
      ],
      [
        "ꪁ",
        "ꪮꪉ"
      ],
      [
        "ꪁ",
        "ꪮꪒ"
      ],
      [
        "ꪄ",
        "ꪽ"
      ],
      [
        "ꪄ",
        "ꪱꪙ"
      ],
      [
        "ꪄ",
        "ꪺꪙ"
      ],
      [
        "ꪋ",
        "꫁ꪱꪥ"
      ],
      [
        "ꪎ",
        "ꪷ"
      ],
      [
        "ꪎ",
        "ꪱꪙ"
      ],
      [
        "ꪘ",
        "ꪰꪉ"
      ],
      [
        "ꪚ",
        "ꪲꪙ"
      ],
      [
        "ꪜ",
        "ꪴꪣ"
      ],
      [
        "ꪝ",
        "ꪮꪉ"
      ],
      [
        "ꪣ",
        "ꪰꪀ"
      ],
      [
        "ꪭ",
        "ꪱꪥ"
      ],
      [
        "ꪮ",
        "ꪮꪙ"
      ],
      [
        "ꪮ",
        "ꪱꪫ"
      ],
      [
        "ꪵ",
        "ꪖ"
      ],
      [
        "ꪷ",
        "ꪀ"
      ],
      [
        "ꪹꪚ",
        "ꪱ"
      ],
      [
        "ꪹꪚ",
        "ꪷ"
      ],
      [
        "ꪶꪀ",
        "ꪚ"
      ],
      [
        "ꪶꪁ",
        "ꪚ"
      ],
      [
        "ꪹꪋ",
        "ꪸ꫁ꪙ"
      ],
      [
        "ꪶꪩ",
        "꪿ꪉ"
      ],
      [
        "ꪵꪩ",
        "꪿ꪙ"
      ],
      [
        "ꪵꪜ",
        "ꪀ"
      ],
      [
        "ꪵꪠ",
        "ꪚ"
      ],
      [
        "ꪼꪎ",
        "꪿"
      ],
      [
        "ꪀ",
        "ꪾ꪿"
      ],
      [
        "ꪁ",
        "ꪺꪉ"
      ],
      [
        "ꪁ",
        "꫁ꪱꪉ"
      ],
      [
        "ꪁ",
        "ꪺꪒ"
      ],
      [
        "ꪋ",
        "꫁"
      ],
      [
        "ꪋ",
        "꪿ꪽ"
      ],
      [
        "ꪎ",
        "ꪱ"
      ],
      [
        "ꪎ",
        "ꪲꪚ"
      ],
      [
        "ꪔ",
        "꫁"
      ],
      [
        "ꪔ",
        "ꪳ꪿ꪙ"
      ],
      [
        "ꪙ",
        "ꪱꪉ"
      ],
      [
        "ꪚ",
        "ꪲ꪿"
      ],
      [
        "ꪝ",
        "ꪱ"
      ],
      [
        "ꪡ",
        "ꪮꪉ"
      ],
      [
        "ꪢ",
        "ꪮꪉ"
      ],
      [
        "ꪣ",
        "ꪸ"
      ],
      [
        "ꪨ",
        "ꪀ"
      ],
      [
        "ꪨ",
        "ꪱꪙ"
      ],
      [
        "ꪩ",
        "ꪱꪀ"
      ],
      [
        "ꪭ",
        "ꪲ"
      ],
      [
        "ꪴ",
        "ꪥ"
      ],
      [
        "ꪶꪚ",
        "꫁ꪉ"
      ],
      [
        "ꪹꪔ",
        "ꪸꪣ"
      ],
      [
        "ꪵꪙ",
        "ꪫ"
      ],
      [
        "ꪁ",
        "ꪲꪉ"
      ],
      [
        "ꪁ",
        "ꪾ꪿"
      ],
      [
        "ꪄ",
        "ꪫ"
      ],
      [
        "ꪄ",
        "ꪱꪥ"
      ],
      [
        "ꪄ",
        "ꪷ꪿"
      ],
      [
        "ꪎ",
        "ꪲꪒ"
      ],
      [
        "ꪏ",
        "ꪲ꫁ꪙ"
      ],
      [
        "ꪓ",
        "ꪷꪥ"
      ],
      [
        "ꪔ",
        "ꪲ꪿ꪉ"
      ],
      [
        "ꪘ",
        "ꪱꪫ"
      ],
      [
        "ꪙ",
        "ꪲ꫁"
      ],
      [
        "ꪚ",
        "ꪱꪒ"
      ],
      [
        "ꪜ",
        "ꪴ꪿"
      ],
      [
        "ꪜ",
        "ꪰꪒ"
      ],
      [
        "ꪝ",
        "ꪳꪉ"
      ],
      [
        "ꪢ",
        "꫁ꪽ"
      ],
      [
        "ꪣ",
        "ꪮꪉ"
      ],
      [
        "ꪨ",
        "ꪴ꪿"
      ],
      [
        "ꪨ",
        "꪿ꪽ"
      ],
      [
        "ꪩ",
        "ꪲ"
      ],
      [
        "ꪩ",
        "ꪾ"
      ],
      [
        "ꪩ",
        "ꪳꪣ"
      ],
      [
        "ꪬ",
        "꪿ꪱꪉ"
      ],
      [
        "ꪭ",
        "꫁ꪮꪙ"
      ],
      [
        "ꪮ",
        "ꪱ"
      ],
      [
        "ꪮ",
        "ꪲ꪿"
      ],
      [
        "ꪳ",
        "꫁ꪉ"
      ],
      [
        "ꪷ",
        "ꪣ"
      ],
      [
        "ꪹ",
        "ꪓꪷꪥ"
      ],
      [
        "ꪻ",
        "ꪠ"
      ],
      [
        "ꪼ",
        "ꪨ"
      ],
      [
        "ꪹꪚ",
        "ꪷ꪿ꪉ"
      ],
      [
        "ꪵꪀ",
        "꫁ꪫ"
      ],
      [
        "ꪹꪎ",
        "ꪉ"
      ],
      [
        "ꪵꪭ",
        "꪿ꪫ"
      ],
      [
        "ꪹꪬ",
        "ꪸꪙ"
      ],
      [
        "ꪹꪬ",
        "ꪷꪉ"
      ],
      [
        "ꪵꪚ",
        "꫁ꪫ"
      ],
      [
        "ꪵꪮ",
        "ꪫ"
      ],
      [
        "ꪀ",
        "꫁ꪮꪙ"
      ],
      [
        "ꪀ",
        "ꪳ꪿"
      ],
      [
        "ꪀ",
        "ꪸ꫁ꪉ"
      ],
      [
        "ꪀ",
        "ꪲ꪿ꪫ"
      ],
      [
        "ꪁ",
        "ꪳꪣ"
      ],
      [
        "ꪄ",
        "꪿ꪺꪉ"
      ],
      [
        "ꪉ",
        "ꪴ"
      ],
      [
        "ꪉ",
        "꪿ꪱꪥ"
      ],
      [
        "ꪊ",
        "ꪰ꪿ꪉ"
      ],
      [
        "ꪋ",
        "꪿ꪱꪉ"
      ],
      [
        "ꪎ",
        "ꪲ"
      ],
      [
        "ꪏ",
        "ꪴꪣ"
      ],
      [
        "ꪑ",
        "ꪷ"
      ],
      [
        "ꪒ",
        "ꪮꪙ"
      ],
      [
        "ꪒ",
        "꪿ꪱꪉ"
      ],
      [
        "ꪒ",
        "꫁ꪱꪙ"
      ],
      [
        "ꪕ",
        "ꪮꪒ"
      ],
      [
        "ꪕ",
        "꫁ꪮꪉ"
      ],
      [
        "ꪕ",
        "ꪰ꪿ꪉ"
      ],
      [
        "ꪘ",
        "ꪮꪉ"
      ],
      [
        "ꪚ",
        "ꪰ꫁ꪉ"
      ],
      [
        "ꪜ",
        "ꪺ"
      ],
      [
        "ꪜ",
        "ꪱꪥ"
      ],
      [
        "ꪠ",
        "꪿ꪱ"
      ],
      [
        "ꪠ",
        "ꪰꪒ"
      ],
      [
        "ꪤ",
        "ꪱꪉ"
      ],
      [
        "ꪤ",
        "꪿ꪱꪉ"
      ],
      [
        "ꪥ",
        "ꪰ꫁ꪉ"
      ],
      [
        "ꪬ",
        "ꪷ"
      ],
      [
        "ꪭ",
        "꫁ꪮꪉ"
      ],
      [
        "ꪮ",
        "ꪺꪙ"
      ],
      [
        "ꪮ",
        "꪿ꪺꪥ"
      ],
      [
        "ꪵ",
        "ꪡ"
      ],
      [
        "ꪷ",
        "꫁ꪙ"
      ],
      [
        "ꪹ",
        "ꪐ꪿"
      ],
      [
        "ꪼ",
        "ꪚ"
      ],
      [
        "ꪶꪀ",
        "꫁ꪣ"
      ],
      [
        "꫁ꪺ",
        "ꪀ"
      ],
      [
        "ꪹꪣ",
        "꪿"
      ],
      [
        "꪿ꪫ",
        "ꪱꪉ"
      ],
      [
        "ꪹꪁ",
        "ꪸ"
      ],
      [
        "ꪹꪩ",
        "ꪱ꪿"
      ],
      [
        "ꪵꪎ",
        "ꪉ"
      ],
      [
        "ꪶꪕ",
        "꫁ꪥ"
      ],
      [
        "ꪵꪔ",
        "꪿ꪉ"
      ],
      [
        "ꪶꪜ",
        "꪿ꪀ"
      ],
      [
        "ꪼꪭ",
        "꪿"
      ],
      [
        "ꪻꪢ",
        "꪿"
      ],
      [
        "ꪀ",
        "꫁ꪽ"
      ],
      [
        "ꪀ",
        "ꪴ꫁"
      ],
      [
        "ꪀ",
        "꪿ꪱꪫ"
      ],
      [
        "ꪀ",
        "ꪴꪒ"
      ],
      [
        "ꪀ",
        "ꪸ꫁ꪫ"
      ],
      [
        "ꪀ",
        "꪿ꪺꪣ"
      ],
      [
        "ꪁ",
        "ꪱꪉ"
      ],
      [
        "ꪁ",
        "ꪴꪉ"
      ],
      [
        "ꪄ",
        "꪿ꪱ"
      ],
      [
        "ꪄ",
        "ꪴ꪿ꪙ"
      ],
      [
        "ꪄ",
        "꫁ꪺꪣ"
      ],
      [
        "ꪉ",
        "ꪱ"
      ],
      [
        "ꪊ",
        "ꪮꪣ"
      ],
      [
        "ꪎ",
        "ꪨꪰꪉ"
      ],
      [
        "ꪏ",
        "ꪳ"
      ],
      [
        "ꪒ",
        "ꪱꪫ"
      ],
      [
        "ꪖ",
        "ꪳꪀ"
      ],
      [
        "ꪙ",
        "ꪰꪀ"
      ],
      [
        "ꪚ",
        "ꪱꪚ"
      ],
      [
        "ꪚ",
        "ꪴꪒ"
      ],
      [
        "ꪛ",
        "ꪩ"
      ],
      [
        "ꪜ",
        "ꪽ"
      ],
      [
        "ꪡ",
        "ꪽ"
      ],
      [
        "ꪡ",
        "ꪰꪒ"
      ],
      [
        "ꪣ",
        "ꪱꪙ"
      ],
      [
        "ꪤ",
        "꪿ꪮꪉ"
      ],
      [
        "ꪨ",
        "ꪴꪒ"
      ],
      [
        "ꪬ",
        "ꪱꪚ"
      ],
      [
        "ꪭ",
        "ꪱꪒ"
      ],
      [
        "ꪮ",
        "꪿ꪱꪀ"
      ],
      [
        "ꪼ",
        "ꪁ"
      ],
      [
        "ꪼ",
        "ꪩ"
      ],
      [
        "ꪼ",
        "ꪪ"
      ],
      [
        "ꪼ",
        "ꪬ"
      ],
      [
        "ꪹꪭ",
        "ꪸ"
      ],
      [
        "ꪹꪭ",
        "꪿"
      ],
      [
        "ꪵꪀ",
        "꪿ꪉ"
      ],
      [
        "ꪶꪁ",
        "꫁ꪙ"
      ],
      [
        "ꪶꪎ",
        "꪿"
      ],
      [
        "ꪹꪀ",
        "ꪒ"
      ],
      [
        "ꪹꪀ",
        "꪿ꪱ"
      ],
      [
        "ꪹꪀ",
        "ꪸꪚ"
      ],
      [
        "ꪶꪩ",
        "꫁ꪣ"
      ],
      [
        "ꪣꪳ",
        "ꪒ"
      ],
      [
        "ꪵꪎ",
        "ꪙ"
      ],
      [
        "ꪁꪫ",
        "ꪱ"
      ],
      [
        "ꪶꪭ",
        "꪿"
      ],
      [
        "ꪵꪮ",
        "꪿"
      ],
      [
        "ꪶꪜ",
        "ꪉ"
      ],
      [
        "ꪵꪫ",
        "꪿ꪙ"
      ],
      [
        "ꪀꪫ",
        "ꪱꪙ"
      ],
      [
        "ꪀ",
        "꫁ꪱꪣ"
      ],
      [
        "ꪁ",
        "ꪱꪥ"
      ],
      [
        "ꪁ",
        "ꪷ꪿"
      ],
      [
        "ꪄ",
        "ꪰꪒ"
      ],
      [
        "ꪄ",
        "꫁ꪮꪉ"
      ],
      [
        "ꪅ",
        "꫁ꪽ"
      ],
      [
        "ꪉ",
        "ꪺ"
      ],
      [
        "ꪊ",
        "ꪸꪉ"
      ],
      [
        "ꪊ",
        "ꪳ꪿"
      ],
      [
        "ꪋ",
        "꫁ꪱ"
      ],
      [
        "ꪋ",
        "꫁ꪮꪥ"
      ],
      [
        "ꪎ",
        "ꪴ꫁"
      ],
      [
        "ꪎ",
        "ꪸꪫ"
      ],
      [
        "ꪏ",
        "ꪲ"
      ],
      [
        "ꪏ",
        "꪿ꪱ"
      ],
      [
        "ꪏ",
        "ꪱꪙ"
      ],
      [
        "ꪑ",
        "ꪰꪉ"
      ],
      [
        "ꪒ",
        "ꪰꪉ"
      ],
      [
        "ꪒ",
        "ꪸꪫ"
      ],
      [
        "ꪔ",
        "ꪾ"
      ],
      [
        "ꪔ",
        "ꪱꪉ"
      ],
      [
        "ꪔ",
        "ꪴ꫁ꪣ"
      ],
      [
        "ꪕ",
        "ꪾ"
      ],
      [
        "ꪖ",
        "꫁ꪺꪥ"
      ],
      [
        "ꪘ",
        "ꪷ꪿"
      ],
      [
        "ꪙ",
        "ꪱꪥ"
      ],
      [
        "ꪚ",
        "ꪮꪉ"
      ],
      [
        "ꪚ",
        "꪿ꪺ"
      ],
      [
        "ꪜ",
        "ꪲ꪿"
      ],
      [
        "ꪜ",
        "ꪸꪀ"
      ],
      [
        "ꪜ",
        "ꪸ꪿ꪙ"
      ],
      [
        "ꪝ",
        "ꪲꪉ"
      ],
      [
        "ꪠ",
        "ꪴꪉ"
      ],
      [
        "ꪩ",
        "ꪾꪚ"
      ],
      [
        "ꪬ",
        "꪿ꪱ"
      ],
      [
        "ꪬ",
        "ꪱꪥ"
      ],
      [
        "ꪬ",
        "ꪲꪙ"
      ],
      [
        "ꪬ",
        "ꪮꪥ"
      ],
      [
        "ꪭ",
        "ꪴ"
      ],
      [
        "ꪭ",
        "ꪰꪀ"
      ],
      [
        "ꪭ",
        "ꪱꪣ"
      ],
      [
        "ꪵ",
        "ꪤ"
      ],
      [
        "ꪶ",
        "ꪮꪒ"
      ],
      [
        "ꪼ",
        "ꪝ"
      ],
      [
        "ꪼ",
        "ꪬ꫁"
      ],
      [
        "ꪶꪀ",
        "ꪙ"
      ],
      [
        "ꪹꪭ",
        "ꪱ"
      ],
      [
        "ꪹꪄ",
        "ꪸꪒ"
      ],
      [
        "ꪵꪀ",
        "ꪉ"
      ],
      [
        "ꪹꪎ",
        "ꪸꪙ"
      ],
      [
        "ꪶꪁ",
        "ꪒ"
      ],
      [
        "ꪹꪀ",
        "ꪸꪒ"
      ],
      [
        "ꪶꪔ",
        "ꪚ"
      ],
      [
        "ꪹꪋ",
        "꫁"
      ],
      [
        "ꪹꪨ",
        "ꪸ꪿ꪀ"
      ],
      [
        "ꪹꪮ",
        "ꪸ"
      ],
      [
        "ꪹꪔ",
        "ꪱ꫁"
      ],
      [
        "ꪹꪕ",
        "꪿"
      ],
      [
        "ꪹꪕ",
        "ꪱ꫁"
      ],
      [
        "ꪵꪒ",
        "꫁"
      ],
      [
        "ꪵꪜ",
        "꫁ꪙ"
      ],
      [
        "ꪵꪔ",
        "꪿"
      ],
      [
        "ꪵꪕ",
        "꫁"
      ],
      [
        "ꪵꪋ",
        "ꪙ"
      ],
      [
        "ꪶꪯ",
        "ꪥ"
      ],
      [
        "ꪶꪛ",
        "ꪚ"
      ],
      [
        "ꪵꪨ",
        "ꪣ"
      ],
      [
        "ꪵꪅ",
        "ꪫ"
      ],
      [
        "ꪀ",
        "ꪱꪀ"
      ],
      [
        "ꪀ",
        "ꪷ꫁"
      ],
      [
        "ꪀ",
        "ꪴꪚ"
      ],
      [
        "ꪁ",
        "꫁ꪱꪙ"
      ],
      [
        "ꪁ",
        "꫁ꪱꪫ"
      ],
      [
        "ꪄ",
        "ꪱꪉ"
      ],
      [
        "ꪄ",
        "ꪲꪒ"
      ],
      [
        "ꪄ",
        "ꪾꪚ"
      ],
      [
        "ꪄ",
        "꫁ꪮꪥ"
      ],
      [
        "ꪅ",
        "ꪱ"
      ],
      [
        "ꪅ",
        "ꪱꪚ"
      ],
      [
        "ꪋ",
        "ꪳ꪿"
      ],
      [
        "ꪋ",
        "ꪲ꫁ꪫ"
      ],
      [
        "ꪎ",
        "ꪴ"
      ],
      [
        "ꪎ",
        "ꪱꪉ"
      ],
      [
        "ꪎ",
        "ꪮꪒ"
      ],
      [
        "ꪒ",
        "ꪱꪥ"
      ],
      [
        "ꪒ",
        "ꪰꪀ"
      ],
      [
        "ꪒ",
        "ꪲꪚ"
      ],
      [
        "ꪔ",
        "ꪰꪒ"
      ],
      [
        "ꪔ",
        "꫁ꪮꪉ"
      ],
      [
        "ꪔ",
        "ꪮꪣ"
      ],
      [
        "ꪔ",
        "꫁ꪮꪙ"
      ],
      [
        "ꪔ",
        "ꪰ꪿ꪉ"
      ],
      [
        "ꪔ",
        "꪿ꪮꪥ"
      ],
      [
        "ꪕ",
        "꪿ꪱ"
      ],
      [
        "ꪕ",
        "ꪴꪙ"
      ],
      [
        "ꪘ",
        "ꪴ"
      ],
      [
        "ꪘ",
        "ꪳꪉ"
      ],
      [
        "ꪙ",
        "꫁ꪱ"
      ],
      [
        "ꪙ",
        "ꪳ꪿ꪉ"
      ],
      [
        "ꪜ",
        "ꪰꪀ"
      ],
      [
        "ꪜ",
        "ꪱꪙ"
      ],
      [
        "ꪜ",
        "ꪴꪙ"
      ],
      [
        "ꪠ",
        "ꪺ"
      ],
      [
        "ꪤ",
        "ꪾ"
      ],
      [
        "ꪥ",
        "ꪱꪚ"
      ],
      [
        "ꪨ",
        "ꪰꪀ"
      ],
      [
        "ꪨ",
        "ꪴ꫁ꪣ"
      ],
      [
        "ꪩ",
        "ꪲꪙ"
      ],
      [
        "ꪩ",
        "ꪲꪉ"
      ],
      [
        "ꪩ",
        "ꪸ꫁ꪉ"
      ],
      [
        "ꪪ",
        "ꪱꪙ"
      ],
      [
        "ꪭ",
        "ꪳ"
      ],
      [
        "ꪭ",
        "ꪱꪀ"
      ],
      [
        "ꪭ",
        "꫁ꪺ"
      ],
      [
        "ꪮ",
        "꫁ꪮꪣ"
      ],
      [
        "ꪳ",
        "꫁ꪣ"
      ],
      [
        "ꪶ",
        "ꪈ"
      ],
      [
        "ꪼ",
        "ꪛ"
      ],
      [
        "ꪹꪚ",
        "ꪸꪒ"
      ],
      [
        "ꪹꪚ",
        "ꪸ꫁"
      ],
      [
        "ꪹꪭ",
        "ꪸ꪿ꪉ"
      ],
      [
        "ꪹꪄ",
        "ꪥ"
      ],
      [
        "ꪹꪄ",
        "ꪱ"
      ],
      [
        "ꪹꪜ",
        "꫁ꪱ"
      ],
      [
        "ꪵꪁ",
        "ꪫ"
      ],
      [
        "ꪵꪁ",
        "꪿ꪉ"
      ],
      [
        "ꪶꪚ",
        "꫁"
      ],
      [
        "ꪵꪎ",
        "ꪚ"
      ],
      [
        "ꪶꪭ",
        "꫁ꪥ"
      ],
      [
        "ꪵꪜ",
        "ꪉ"
      ],
      [
        "ꪶꪠ",
        "ꪣ"
      ],
      [
        "ꪵꪕ",
        "ꪫ"
      ],
      [
        "ꪁꪩ",
        "ꪷ꫁"
      ],
      [
        "ꪵꪊ",
        "ꪚ"
      ],
      [
        "ꪹꪛ",
        "ꪸ꫁ꪉ"
      ],
      [
        "ꪼꪢ",
        "꪿"
      ],
      [
        "ꪝꪲ",
        "꫁ꪀ"
      ],
      [
        "ꪀ",
        "ꪱ"
      ],
      [
        "ꪀ",
        "ꪱꪫ"
      ],
      [
        "ꪀ",
        "ꪰꪒ"
      ],
      [
        "ꪀ",
        "꫁ꪮꪣ"
      ],
      [
        "ꪁ",
        "ꪱꪒ"
      ],
      [
        "ꪁ",
        "꪿ꪮꪥ"
      ],
      [
        "ꪁ",
        "꫁ꪺꪀ"
      ],
      [
        "ꪄ",
        "ꪮꪙ"
      ],
      [
        "ꪅ",
        "ꪮꪚ"
      ],
      [
        "ꪉ",
        "ꪮꪥ"
      ],
      [
        "ꪊ",
        "꪿ꪮꪉ"
      ],
      [
        "ꪋ",
        "ꪲ"
      ],
      [
        "ꪋ",
        "ꪱꪥ"
      ],
      [
        "ꪎ",
        "ꪱꪀ"
      ],
      [
        "ꪎ",
        "ꪮꪙ"
      ],
      [
        "ꪎ",
        "ꪮꪥ"
      ],
      [
        "ꪎ",
        "ꪸ꫁ꪉ"
      ],
      [
        "ꪎ",
        "ꪴ꪿ꪀ"
      ],
      [
        "ꪏ",
        "ꪴ꫁ꪀ"
      ],
      [
        "ꪑ",
        "꪿ꪱꪉ"
      ],
      [
        "ꪒ",
        "ꪱ"
      ],
      [
        "ꪒ",
        "꪿ꪱꪙ"
      ],
      [
        "ꪒ",
        "ꪲ꫁ꪙ"
      ],
      [
        "ꪔ",
        "ꪮꪚ"
      ],
      [
        "ꪕ",
        "ꪰꪀ"
      ],
      [
        "ꪕ",
        "ꪱꪙ"
      ],
      [
        "ꪕ",
        "ꪮꪚ"
      ],
      [
        "ꪖ",
        "ꪱꪀ"
      ],
      [
        "ꪖ",
        "꪿ꪮꪉ"
      ],
      [
        "ꪖ",
        "ꪲ꫁ꪣ"
      ],
      [
        "ꪚ",
        "ꪷ꪿"
      ],
      [
        "ꪚ",
        "ꪮꪙ"
      ],
      [
        "ꪚ",
        "꫁ꪮꪙ"
      ],
      [
        "ꪚ",
        "ꪴꪚ"
      ],
      [
        "ꪜ",
        "ꪴ"
      ],
      [
        "ꪜ",
        "ꪮꪀ"
      ],
      [
        "ꪜ",
        "꫁ꪱꪙ"
      ],
      [
        "ꪜ",
        "꫁ꪮꪣ"
      ],
      [
        "ꪝ",
        "꫁ꪮꪣ"
      ],
      [
        "ꪠ",
        "ꪱꪙ"
      ],
      [
        "ꪠ",
        "ꪸꪉ"
      ],
      [
        "ꪠ",
        "ꪴꪀ"
      ],
      [
        "ꪡ",
        "ꪰꪉ"
      ],
      [
        "ꪢ",
        "ꪮꪀ"
      ],
      [
        "ꪤ",
        "ꪮꪉ"
      ],
      [
        "ꪤ",
        "ꪸꪒ"
      ],
      [
        "ꪤ",
        "꪿ꪱꪫ"
      ],
      [
        "ꪨ",
        "ꪷ꫁"
      ],
      [
        "ꪩ",
        "꫁"
      ],
      [
        "ꪬ",
        "꫁ꪱ"
      ],
      [
        "ꪬ",
        "ꪷ꪿"
      ],
      [
        "ꪬ",
        "ꪱꪙ"
      ],
      [
        "ꪬ",
        "꫁ꪮꪉ"
      ],
      [
        "ꪭ",
        "ꪰꪒ"
      ],
      [
        "ꪭ",
        "꪿ꪱꪫ"
      ],
      [
        "ꪭ",
        "ꪸꪀ"
      ],
      [
        "ꪭ",
        "ꪲꪣ"
      ],
      [
        "ꪮ",
        "ꪳꪒ"
      ],
      [
        "ꪹ",
        "ꪈ"
      ],
      [
        "ꪻ",
        "ꪁ"
      ],
      [
        "ꪻ",
        "ꪋ꫁"
      ],
      [
        "ꪼ",
        "ꪙ"
      ],
      [
        "ꪼ",
        "ꪠ"
      ],
      [
        "ꪹꪚ",
        "ꪸꪉ"
      ],
      [
        "ꪹꪭ",
        "꫁"
      ],
      [
        "ꪶꪁ",
        "꫁ꪀ"
      ],
      [
        "ꪶꪎ",
        "꪿ꪉ"
      ],
      [
        "ꪹꪀ",
        "ꪷ꪿ꪀ"
      ],
      [
        "ꪶꪔ",
        "꫁"
      ],
      [
        "ꪹꪜ",
        "꪿ꪱ"
      ],
      [
        "ꪹꪜ",
        "ꪱ꫁"
      ],
      [
        "ꪹꪜ",
        "ꪷꪒ"
      ],
      [
        "ꪹꪋ",
        "ꪀ"
      ],
      [
        "ꪹꪋ",
        "ꪱ꫁"
      ],
      [
        "ꪹꪋ",
        "ꪷ꪿ꪉ"
      ],
      [
        "ꪹꪁ",
        "꫁ꪱ"
      ],
      [
        "ꪹꪨ",
        "꫁ꪙ"
      ],
      [
        "ꪹꪮ",
        "꫁ꪥ"
      ],
      [
        "ꪹꪮ",
        "ꪷ꪿ꪀ"
      ],
      [
        "ꪹꪩ",
        "ꪱ"
      ],
      [
        "ꪹꪩ",
        "ꪷꪉ"
      ],
      [
        "ꪵꪁ",
        "ꪚ"
      ],
      [
        "ꪶꪚ",
        "ꪒ"
      ],
      [
        "ꪵꪭ",
        "꫁ꪫ"
      ],
      [
        "ꪹꪕ",
        "ꪱ"
      ],
      [
        "ꪼꪜ",
        "꪿"
      ],
      [
        "ꪵꪜ",
        "꫁"
      ],
      [
        "ꪵꪔ",
        "꫁ꪣ"
      ],
      [
        "ꪵꪚ",
        "ꪙ"
      ],
      [
        "ꪵꪚ",
        "꪿ꪙ"
      ],
      [
        "ꪹꪠ",
        "ꪷ꪿ꪉ"
      ],
      [
        "ꪹꪏ",
        "ꪉ"
      ],
      [
        "ꪹꪯ",
        "ꪸ"
      ],
      [
        "ꪹꪙ",
        "ꪱ꪿"
      ],
      [
        "ꪹꪖ",
        "ꪱ꫁"
      ],
      [
        "ꪵꪝ",
        "ꪉ"
      ],
      [
        "ꪵꪬ",
        "꫁ꪉ"
      ],
      [
        "ꪵꪬ",
        "꪿ꪫ"
      ],
      [
        "ꪶꪣ",
        "ꪒ"
      ],
      [
        "ꪹꪒ",
        "ꪸ꪿ꪀ"
      ],
      [
        "ꪶꪤ",
        "꪿ꪉ"
      ],
      [
        "ꪵꪄꪫ",
        "ꪙ"
      ],
      [
        "ꪵꪪ",
        "꪿ꪉ"
      ],
      [
        "ꪀ",
        "ꪮꪀ"
      ],
      [
        "ꪀ",
        "ꪮꪙ"
      ],
      [
        "ꪀ",
        "꪿ꪽ"
      ],
      [
        "ꪀ",
        "꪿ꪺꪥ"
      ],
      [
        "ꪀ",
        "꪿ꪱꪀ"
      ],
      [
        "ꪀ",
        "ꪲ꫁ꪉ"
      ],
      [
        "ꪁ",
        "ꪲ"
      ],
      [
        "ꪁ",
        "꫁ꪮꪙ"
      ],
      [
        "ꪁ",
        "꪿ꪺꪥ"
      ],
      [
        "ꪄ",
        "꪿ꪱꪥ"
      ],
      [
        "ꪅ",
        "ꪱꪫ"
      ],
      [
        "ꪉ",
        "ꪱꪚ"
      ],
      [
        "ꪊ",
        "ꪱꪙ"
      ],
      [
        "ꪊ",
        "ꪲꪒ"
      ],
      [
        "ꪋ",
        "ꪱꪉ"
      ],
      [
        "ꪋ",
        "ꪮꪙ"
      ],
      [
        "ꪋ",
        "ꪸꪙ"
      ],
      [
        "ꪋ",
        "ꪷ꫁"
      ],
      [
        "ꪋ",
        "꪿ꪮꪥ"
      ],
      [
        "ꪋ",
        "ꪳꪀ"
      ],
      [
        "ꪎ",
        "꫁ꪮꪥ"
      ],
      [
        "ꪎ",
        "꪿ꪺꪥ"
      ],
      [
        "ꪏ",
        "꫁ꪱꪫ"
      ],
      [
        "ꪔ",
        "꫁ꪱ"
      ],
      [
        "ꪔ",
        "ꪮꪀ"
      ],
      [
        "ꪔ",
        "ꪲꪒ"
      ],
      [
        "ꪔ",
        "ꪮꪒ"
      ],
      [
        "ꪔ",
        "ꪾ꪿"
      ],
      [
        "ꪔ",
        "ꪸ꪿ꪉ"
      ],
      [
        "ꪕ",
        "ꪸꪙ"
      ],
      [
        "ꪖ",
        "꫁ꪱ"
      ],
      [
        "ꪖ",
        "꪿ꪺ"
      ],
      [
        "ꪖ",
        "ꪲ꪿"
      ],
      [
        "ꪖ",
        "ꪸꪉ"
      ],
      [
        "ꪘ",
        "ꪱ"
      ],
      [
        "ꪘ",
        "꪿ꪺꪉ"
      ],
      [
        "ꪙ",
        "ꪮꪀ"
      ],
      [
        "ꪙ",
        "ꪴꪣ"
      ],
      [
        "ꪙ",
        "ꪲ꫁ꪫ"
      ],
      [
        "ꪚ",
        "꫁ꪮꪉ"
      ],
      [
        "ꪚ",
        "꪿ꪮꪙ"
      ],
      [
        "ꪚ",
        "꫁ꪮꪣ"
      ],
      [
        "ꪛ",
        "꫁ꪱꪙ"
      ],
      [
        "ꪜ",
        "꫁ꪱ"
      ],
      [
        "ꪜ",
        "ꪱꪚ"
      ],
      [
        "ꪜ",
        "꪿ꪮꪉ"
      ],
      [
        "ꪝ",
        "ꪰꪒ"
      ],
      [
        "ꪝ",
        "ꪴ꪿ꪉ"
      ],
      [
        "ꪠ",
        "ꪴ"
      ],
      [
        "ꪠ",
        "ꪱꪉ"
      ],
      [
        "ꪠ",
        "꪿ꪱꪥ"
      ],
      [
        "ꪡ",
        "ꪱꪥ"
      ],
      [
        "ꪣ",
        "꫁ꪮꪙ"
      ],
      [
        "ꪤ",
        "ꪳꪒ"
      ],
      [
        "ꪤ",
        "ꪺꪒ"
      ],
      [
        "ꪥ",
        "꪿ꪱ"
      ],
      [
        "ꪨ",
        "ꪺ"
      ],
      [
        "ꪨ",
        "ꪮꪒ"
      ],
      [
        "ꪩ",
        "ꪮꪙ"
      ],
      [
        "ꪩ",
        "ꪲ꫁ꪫ"
      ],
      [
        "ꪩ",
        "ꪴꪉ"
      ],
      [
        "ꪫ",
        "ꪱꪫ"
      ],
      [
        "ꪬ",
        "ꪰꪀ"
      ],
      [
        "ꪬ",
        "ꪾꪚ"
      ],
      [
        "ꪬ",
        "ꪮꪒ"
      ],
      [
        "ꪬ",
        "ꪴꪀ"
      ],
      [
        "ꪬ",
        "ꪸ꪿ꪉ"
      ],
      [
        "ꪭ",
        "꫁ꪱ"
      ],
      [
        "ꪭ",
        "꪿ꪱꪉ"
      ],
      [
        "ꪭ",
        "ꪷ꫁"
      ],
      [
        "ꪮ",
        "꪿ꪱ"
      ],
      [
        "ꪮ",
        "ꪱꪙ"
      ],
      [
        "ꪮ",
        "ꪸꪙ"
      ],
      [
        "ꪮ",
        "ꪾ꫁"
      ],
      [
        "ꪮ",
        "ꪱꪚ"
      ],
      [
        "ꪮ",
        "꫁ꪮꪙ"
      ],
      [
        "ꪮ",
        "꪿ꪮꪥ"
      ],
      [
        "ꪮ",
        "ꪳꪙ"
      ],
      [
        "ꪮ",
        "ꪲ꪿ꪉ"
      ],
      [
        "ꪮ",
        "ꪲ꪿ꪙ"
      ],
      [
        "ꪵ",
        "ꪐ"
      ],
      [
        "ꪶ",
        "ꪓ"
      ],
      [
        "ꪶ",
        "ꪗ"
      ],
      [
        "ꪻ",
        "ꪔ꫁"
      ],
      [
        "ꪼ",
        "ꪐ"
      ],
      [
        "ꪼ",
        "ꪔ"
      ],
      [
        "ꪷ꪿",
        "ꪥ"
      ],
      [
        "ꪹꪚ",
        "ꪸ꫁ꪣ"
      ],
      [
        "ꪶꪀ",
        "ꪣ"
      ],
      [
        "ꪵꪀ",
        "ꪚ"
      ],
      [
        "ꪶꪁ",
        "꫁ꪉ"
      ],
      [
        "ꪶꪎ",
        "ꪙ"
      ],
      [
        "ꪹꪀ",
        "ꪷ꪿ꪣ"
      ],
      [
        "ꪶꪔ",
        "꫁ꪙ"
      ],
      [
        "ꪹꪜ",
        "ꪱ꪿"
      ],
      [
        "ꪹꪜ",
        "꪿ꪥ"
      ],
      [
        "ꪹꪋ",
        "ꪱ"
      ],
      [
        "ꪶꪩ",
        "꫁ꪙ"
      ],
      [
        "ꪹꪁ",
        "ꪸꪣ"
      ],
      [
        "ꪹꪨ",
        "꫁ꪱ"
      ],
      [
        "ꪵꪣ",
        "ꪙ"
      ],
      [
        "ꪹꪥ",
        "꪿ꪉ"
      ],
      [
        "ꪹꪩ",
        "ꪀ"
      ],
      [
        "ꪵꪁ",
        "꫁ꪙ"
      ],
      [
        "ꪵꪁ",
        "꫁ꪫ"
      ],
      [
        "ꪹꪔ",
        "ꪷ꪿ꪀ"
      ],
      [
        "ꪹꪔ",
        "ꪸ꪿ꪀ"
      ],
      [
        "ꪹꪕ",
        "ꪱ꪿"
      ],
      [
        "ꪶꪕ",
        "ꪣ"
      ],
      [
        "ꪶꪕ",
        "꪿"
      ],
      [
        "ꪶꪕ",
        "꪿ꪉ"
      ],
      [
        "ꪹꪬ",
        "ꪀ"
      ],
      [
        "ꪹꪬ",
        "ꪸꪒ"
      ],
      [
        "ꪵꪔ",
        "ꪉ"
      ],
      [
        "ꪵꪠ",
        "꪿ꪙ"
      ],
      [
        "ꪹꪉ",
        "ꪱ"
      ],
      [
        "ꪶꪜ",
        "ꪒ"
      ],
      [
        "ꪹꪖ",
        "ꪀ"
      ],
      [
        "ꪹꪖ",
        "ꪷꪉ"
      ],
      [
        "ꪹꪅ",
        "ꪷ꫁"
      ],
      [
        "ꪶꪊ",
        "ꪣ"
      ],
      [
        "ꪶꪬ",
        "ꪒ"
      ],
      [
        "ꪶꪨ",
        "ꪉ"
      ],
      [
        "ꪹꪛ",
        "ꪸ꫁ꪀ"
      ],
      [
        "ꪶꪏ",
        "ꪉ"
      ],
      [
        "ꪶꪯ",
        "꪿"
      ],
      [
        "ꪶꪡ",
        "ꪒ"
      ],
      [
        "ꪶꪢ",
        "꪿ꪀ"
      ],
      [
        "ꪶꪖ",
        "ꪉ"
      ],
      [
        "ꪼꪭ",
        "꫁"
      ],
      [
        "ꪀ꫁ꪫ",
        "ꪱꪉ"
      ],
      [
        "ꪀꪒ",
        "꫁ꪱꪉ"
      ],
      [
        "ꪀ",
        "ꪔ"
      ],
      [
        "ꪀ",
        "ꪴ꪿"
      ],
      [
        "ꪀ",
        "ꪲꪒ"
      ],
      [
        "ꪀ",
        "꫁ꪮꪥ"
      ],
      [
        "ꪀ",
        "꫁ꪱꪥ"
      ],
      [
        "ꪀ",
        "꫁ꪱꪙ"
      ],
      [
        "ꪀ",
        "꪿ꪮꪉ"
      ],
      [
        "ꪀ",
        "ꪳꪙ"
      ],
      [
        "ꪀ",
        "ꪴ꪿ꪣ"
      ],
      [
        "ꪁ",
        "ꪱꪙ"
      ],
      [
        "ꪁ",
        "ꪴ꪿"
      ],
      [
        "ꪁ",
        "ꪰꪉ"
      ],
      [
        "ꪁ",
        "꫁ꪽ"
      ],
      [
        "ꪁ",
        "ꪲꪣ"
      ],
      [
        "ꪄ",
        "ꪲ꪿"
      ],
      [
        "ꪄ",
        "꫁ꪽ"
      ],
      [
        "ꪄ",
        "꫁ꪮꪙ"
      ],
      [
        "ꪄ",
        "ꪾ꪿"
      ],
      [
        "ꪄ",
        "ꪴꪣ"
      ],
      [
        "ꪄ",
        "꪿ꪺꪥ"
      ],
      [
        "ꪄ",
        "ꪫꪱꪉ"
      ],
      [
        "ꪅ",
        "ꪮꪉ"
      ],
      [
        "ꪈ",
        "ꪲꪒ"
      ],
      [
        "ꪉ",
        "ꪱꪥ"
      ],
      [
        "ꪉ",
        "ꪱꪙ"
      ],
      [
        "ꪉ",
        "ꪳ꫁ꪀ"
      ],
      [
        "ꪊ",
        "ꪱꪀ"
      ],
      [
        "ꪊ",
        "ꪾ꫁"
      ],
      [
        "ꪊ",
        "꪿ꪱꪉ"
      ],
      [
        "ꪊ",
        "ꪱꪫ"
      ],
      [
        "ꪊ",
        "꫁ꪱꪉ"
      ],
      [
        "ꪊ",
        "ꪲꪉ"
      ],
      [
        "ꪊ",
        "ꪴ꪿ꪀ"
      ],
      [
        "ꪋ",
        "ꪱꪙ"
      ],
      [
        "ꪋ",
        "꫁ꪮꪉ"
      ],
      [
        "ꪋ",
        "ꪲ꫁"
      ],
      [
        "ꪎ",
        "ꪸꪒ"
      ],
      [
        "ꪎ",
        "꫁ꪮꪉ"
      ],
      [
        "ꪎ",
        "꫁ꪽ"
      ],
      [
        "ꪎ",
        "꫁ꪮꪙ"
      ],
      [
        "ꪎ",
        "ꪺꪙ"
      ],
      [
        "ꪎ",
        "꪿ꪱꪥ"
      ],
      [
        "ꪎ",
        "ꪲ꪿ꪉ"
      ],
      [
        "ꪎ",
        "ꪺꪒ"
      ],
      [
        "ꪏ",
        "ꪾ꫁"
      ],
      [
        "ꪏ",
        "ꪱꪒ"
      ],
      [
        "ꪐ",
        "꫁ꪱꪣ"
      ],
      [
        "ꪑ",
        "ꪮꪉ"
      ],
      [
        "ꪑ",
        "ꪱꪣ"
      ],
      [
        "ꪑ",
        "꪿ꪱꪥ"
      ],
      [
        "ꪔ",
        "ꪱꪚ"
      ],
      [
        "ꪔ",
        "ꪲꪚ"
      ],
      [
        "ꪔ",
        "ꪴ꪿ꪀ"
      ],
      [
        "ꪔ",
        "ꪳ꪿ꪉ"
      ],
      [
        "ꪕ",
        "꪿ꪮꪥ"
      ],
      [
        "ꪖ",
        "ꪱꪣ"
      ],
      [
        "ꪖ",
        "꫁ꪺꪣ"
      ],
      [
        "ꪘ",
        "ꪮꪙ"
      ],
      [
        "ꪙ",
        "ꪴ꪿ꪉ"
      ],
      [
        "ꪚ",
        "ꪺ"
      ],
      [
        "ꪚ",
        "ꪮꪒ"
      ],
      [
        "ꪚ",
        "ꪷ꫁"
      ],
      [
        "ꪚ",
        "꫁ꪽ"
      ],
      [
        "ꪚ",
        "ꪾ꪿"
      ],
      [
        "ꪛ",
        "ꪰꪉ"
      ],
      [
        "ꪛ",
        "ꪺꪀ"
      ],
      [
        "ꪛ",
        "ꪩꪱꪒ"
      ],
      [
        "ꪜ",
        "ꪱꪒ"
      ],
      [
        "ꪜ",
        "꫁ꪽ"
      ],
      [
        "ꪜ",
        "ꪴꪀ"
      ],
      [
        "ꪜ",
        "ꪮꪣ"
      ],
      [
        "ꪜ",
        "ꪴ꪿ꪀ"
      ],
      [
        "ꪜ",
        "ꪸ꪿ꪫ"
      ],
      [
        "ꪝ",
        "ꪱꪥ"
      ],
      [
        "ꪝ",
        "ꪮꪀ"
      ],
      [
        "ꪝ",
        "ꪸꪉ"
      ],
      [
        "ꪝ",
        "꫁ꪱꪫ"
      ],
      [
        "ꪠ",
        "ꪮꪣ"
      ],
      [
        "ꪠ",
        "꫁ꪱꪉ"
      ],
      [
        "ꪡ",
        "ꪱ"
      ],
      [
        "ꪡ",
        "ꪸ"
      ],
      [
        "ꪢ",
        "ꪲꪙ"
      ],
      [
        "ꪢ",
        "ꪴ꪿"
      ],
      [
        "ꪣ",
        "ꪴ꫁"
      ],
      [
        "ꪣ",
        "ꪲ꫁"
      ],
      [
        "ꪣ",
        "ꪸ꫁ꪙ"
      ],
      [
        "ꪣ",
        "ꪴ꪿ꪙ"
      ],
      [
        "ꪤ",
        "ꪲꪒ"
      ],
      [
        "ꪤ",
        "ꪱꪒ"
      ],
      [
        "ꪤ",
        "꫁ꪱꪙ"
      ],
      [
        "ꪤ",
        "꪿ꪮꪙ"
      ],
      [
        "ꪥ",
        "ꪸꪙ"
      ],
      [
        "ꪥ",
        "꪿ꪱꪙ"
      ],
      [
        "ꪨ",
        "ꪒ"
      ],
      [
        "ꪨ",
        "ꪷ꪿"
      ],
      [
        "ꪨ",
        "ꪱꪚ"
      ],
      [
        "ꪨ",
        "ꪲ꪿"
      ],
      [
        "ꪨ",
        "ꪲ꪿ꪉ"
      ],
      [
        "ꪩ",
        "ꪷ"
      ],
      [
        "ꪩ",
        "ꪺ"
      ],
      [
        "ꪩ",
        "꪿ꪙ"
      ],
      [
        "ꪩ",
        "꫁ꪱꪙ"
      ],
      [
        "ꪫ",
        "ꪽ"
      ],
      [
        "ꪬ",
        "ꪷ꫁"
      ],
      [
        "ꪬ",
        "ꪸꪣ"
      ],
      [
        "ꪭ",
        "ꪾ"
      ],
      [
        "ꪭ",
        "꪿ꪱ"
      ],
      [
        "ꪭ",
        "ꪮꪙ"
      ],
      [
        "ꪭ",
        "꫁ꪮꪥ"
      ],
      [
        "ꪭ",
        "꫁ꪱꪙ"
      ],
      [
        "ꪭ",
        "꪿ꪮꪉ"
      ],
      [
        "ꪮ",
        "꪿ꪱꪫ"
      ],
      [
        "ꪮ",
        "꫁ꪱꪉ"
      ],
      [
        "ꪮ",
        "ꪴ꫁ꪣ"
      ],
      [
        "ꪮ",
        "ꪴ꪿ꪙ"
      ],
      [
        "ꪯ",
        "꪿ꪱ"
      ],
      [
        "ꪴ",
        "꫁ꪙ"
      ],
      [
        "ꪵ",
        "ꪗ"
      ],
      [
        "ꪵ",
        "ꪢ"
      ],
      [
        "ꪵ",
        "ꪏꪩ"
      ],
      [
        "ꪶ",
        "ꪐ"
      ],
      [
        "ꪶ",
        "ꪘ"
      ],
      [
        "ꪷ",
        "꫁ꪉ"
      ],
      [
        "ꪸ",
        "꪿ꪣ"
      ],
      [
        "ꪹ",
        "ꪮꪒ"
      ],
      [
        "ꪹꪚ",
        "꫁"
      ],
      [
        "ꪹꪚ",
        "꪿ꪣ"
      ],
      [
        "ꪴ꪿",
        "ꪥ"
      ],
      [
        "ꪵꪀ",
        "ꪙ"
      ],
      [
        "ꪵꪀ",
        "꫁ꪣ"
      ],
      [
        "ꪵꪀ",
        "꪿ꪫ"
      ],
      [
        "ꪹꪎ",
        "꪿ꪉ"
      ],
      [
        "ꪹꪀ",
        "ꪚ"
      ],
      [
        "ꪹꪀ",
        "꪿ꪙ"
      ],
      [
        "ꪹꪜ",
        "ꪥ"
      ],
      [
        "ꪹꪣ",
        "ꪷꪉ"
      ],
      [
        "ꪵꪣ",
        "ꪫ"
      ],
      [
        "ꪵꪁ",
        "꫁"
      ],
      [
        "ꪵꪁ",
        "꫁ꪀ"
      ],
      [
        "ꪹꪔ",
        "ꪷꪒ"
      ],
      [
        "ꪹꪕ",
        "ꪸ"
      ],
      [
        "ꪵꪎ",
        "꪿"
      ],
      [
        "ꪵꪒ",
        "ꪙ"
      ],
      [
        "ꪵꪩ",
        "ꪉ"
      ],
      [
        "ꪶꪄ",
        "ꪚ"
      ],
      [
        "ꪵꪚ",
        "ꪀ"
      ],
      [
        "ꪹꪯ",
        "ꪷꪥ"
      ],
      [
        "ꪵꪠ",
        "꫁"
      ],
      [
        "ꪶꪜ",
        "꪿ꪉ"
      ],
      [
        "ꪶꪠ",
        "꪿ꪀ"
      ],
      [
        "ꪹꪅ",
        "ꪷꪉ"
      ],
      [
        "ꪵꪏ",
        "ꪉ"
      ],
      [
        "ꪹꪛ",
        "ꪸꪒ"
      ],
      [
        "ꪹꪡ",
        "ꪉ"
      ],
      [
        "ꪶꪢ",
        "ꪒ"
      ],
      [
        "ꪶꪢ",
        "꪿ꪙ"
      ],
      [
        "ꪀ꫁ꪫ",
        "ꪱ"
      ],
      [
        "ꪀꪤ",
        "꫁ꪮꪥ"
      ],
      [
        "ꪶꪁꪩ",
        "꪿ꪙ"
      ],
      [
        "ꪀ",
        "ꪳ"
      ],
      [
        "ꪀ",
        "ꪮꪒ"
      ],
      [
        "ꪀ",
        "ꪲ꪿"
      ],
      [
        "ꪀ",
        "꪿ꪫ"
      ],
      [
        "ꪀ",
        "ꪲ꫁"
      ],
      [
        "ꪀ",
        "ꪲ꪿ꪙ"
      ],
      [
        "ꪁ",
        "ꪣ"
      ],
      [
        "ꪁ",
        "ꪳꪒ"
      ],
      [
        "ꪁ",
        "꫁ꪮꪀ"
      ],
      [
        "ꪄ",
        "ꪱꪚ"
      ],
      [
        "ꪄ",
        "꫁ꪱꪫ"
      ],
      [
        "ꪄ",
        "꪿ꪮꪥ"
      ],
      [
        "ꪄ",
        "꫁ꪱꪣ"
      ],
      [
        "ꪄ",
        "ꪳ꪿ꪙ"
      ],
      [
        "ꪄ",
        "꪿ꪫꪱꪉ"
      ],
      [
        "ꪅ",
        "ꪩ"
      ],
      [
        "ꪅ",
        "ꪳ"
      ],
      [
        "ꪅ",
        "ꪱꪀ"
      ],
      [
        "ꪉ",
        "ꪲꪙ"
      ],
      [
        "ꪉ",
        "ꪮꪣ"
      ],
      [
        "ꪊ",
        "ꪱ"
      ],
      [
        "ꪊ",
        "ꪷ"
      ],
      [
        "ꪊ",
        "ꪴꪚ"
      ],
      [
        "ꪊ",
        "ꪴꪉ"
      ],
      [
        "ꪋ",
        "꫁ꪱꪙ"
      ],
      [
        "ꪋ",
        "ꪮꪚ"
      ],
      [
        "ꪋ",
        "꫁ꪮꪙ"
      ],
      [
        "ꪋ",
        "ꪳ꪿ꪙ"
      ],
      [
        "ꪎ",
        "ꪮꪀ"
      ],
      [
        "ꪎ",
        "ꪲ꪿"
      ],
      [
        "ꪎ",
        "ꪱꪣ"
      ],
      [
        "ꪎ",
        "ꪮꪚ"
      ],
      [
        "ꪎ",
        "꪿ꪮꪉ"
      ],
      [
        "ꪎ",
        "ꪲꪉ"
      ],
      [
        "ꪎ",
        "꪿ꪽ"
      ],
      [
        "ꪎ",
        "ꪳ꪿"
      ],
      [
        "ꪎ",
        "ꪸꪚ"
      ],
      [
        "ꪎ",
        "ꪨꪱꪀ"
      ],
      [
        "ꪏ",
        "ꪾ"
      ],
      [
        "ꪏ",
        "ꪮꪀ"
      ],
      [
        "ꪐ",
        "ꪲ꪿ꪉ"
      ],
      [
        "ꪐ",
        "ꪴ꫁ꪉ"
      ],
      [
        "ꪑ",
        "ꪱ"
      ],
      [
        "ꪑ",
        "ꪮꪀ"
      ],
      [
        "ꪑ",
        "꪿ꪽ"
      ],
      [
        "ꪒ",
        "꪿ꪱ"
      ],
      [
        "ꪒ",
        "ꪱꪉ"
      ],
      [
        "ꪒ",
        "ꪸ꪿ꪉ"
      ],
      [
        "ꪒ",
        "ꪴ꫁ꪉ"
      ],
      [
        "ꪓ",
        "꫁ꪱꪙ"
      ],
      [
        "ꪔ",
        "꪿ꪱꪫ"
      ],
      [
        "ꪔ",
        "ꪴ꫁ꪥ"
      ],
      [
        "ꪕ",
        "ꪙ"
      ],
      [
        "ꪕ",
        "ꪱ"
      ],
      [
        "ꪕ",
        "ꪱꪀ"
      ],
      [
        "ꪕ",
        "꫁ꪱꪫ"
      ],
      [
        "ꪕ",
        "ꪴꪚ"
      ],
      [
        "ꪕ",
        "ꪳ꫁ꪙ"
      ],
      [
        "ꪕ",
        "ꪳꪣ"
      ],
      [
        "ꪖ",
        "ꪴ꪿ꪣ"
      ],
      [
        "ꪙ",
        "꪿ꪱꪉ"
      ],
      [
        "ꪙ",
        "꫁ꪱꪙ"
      ],
      [
        "ꪚ",
        "ꪱ"
      ],
      [
        "ꪚ",
        "ꪱꪥ"
      ],
      [
        "ꪚ",
        "ꪰꪒ"
      ],
      [
        "ꪚ",
        "ꪲꪉ"
      ],
      [
        "ꪚ",
        "꫁ꪺꪙ"
      ],
      [
        "ꪛ",
        "ꪱꪥ"
      ],
      [
        "ꪛ",
        "ꪱꪙ"
      ],
      [
        "ꪛ",
        "ꪺꪙ"
      ],
      [
        "ꪝ",
        "ꪙ"
      ],
      [
        "ꪝ",
        "꫁ꪱ"
      ],
      [
        "ꪝ",
        "ꪺꪉ"
      ],
      [
        "ꪝ",
        "ꪳ꫁ꪙ"
      ],
      [
        "ꪠ",
        "ꪱꪒ"
      ],
      [
        "ꪠ",
        "꫁ꪽ"
      ],
      [
        "ꪡ",
        "ꪱꪉ"
      ],
      [
        "ꪡ",
        "ꪱꪀ"
      ],
      [
        "ꪡ",
        "ꪰꪀ"
      ],
      [
        "ꪡ",
        "ꪱꪒ"
      ],
      [
        "ꪡ",
        "꫁ꪱꪥ"
      ],
      [
        "ꪢ",
        "ꪱꪥ"
      ],
      [
        "ꪢ",
        "ꪱꪉ"
      ],
      [
        "ꪣ",
        "ꪮꪥ"
      ],
      [
        "ꪤ",
        "ꪱꪀ"
      ],
      [
        "ꪤ",
        "ꪰꪀ"
      ],
      [
        "ꪤ",
        "꫁ꪱꪫ"
      ],
      [
        "ꪥ",
        "ꪱꪥ"
      ],
      [
        "ꪥ",
        "ꪱꪒ"
      ],
      [
        "ꪥ",
        "ꪰ꪿ꪉ"
      ],
      [
        "ꪨ",
        "ꪱꪉ"
      ],
      [
        "ꪨ",
        "꪿ꪱꪉ"
      ],
      [
        "ꪩ",
        "ꪮꪀ"
      ],
      [
        "ꪩ",
        "ꪴꪚ"
      ],
      [
        "ꪩ",
        "ꪲ꫁ꪙ"
      ],
      [
        "ꪩ",
        "꪿ꪱꪣ"
      ],
      [
        "ꪪ",
        "ꪽ"
      ],
      [
        "ꪪ",
        "꪿ꪱꪉ"
      ],
      [
        "ꪫ",
        "ꪲ"
      ],
      [
        "ꪫ",
        "ꪱꪀ"
      ],
      [
        "ꪫ",
        "ꪲꪫ"
      ],
      [
        "ꪬ",
        "ꪱꪫ"
      ],
      [
        "ꪬ",
        "ꪮꪚ"
      ],
      [
        "ꪬ",
        "꫁ꪱꪫ"
      ],
      [
        "ꪬ",
        "꫁ꪱꪣ"
      ],
      [
        "ꪭ",
        "ꪮꪣ"
      ],
      [
        "ꪭ",
        "ꪴꪒ"
      ],
      [
        "ꪭ",
        "꫁ꪱꪉ"
      ],
      [
        "ꪮ",
        "ꪽ"
      ],
      [
        "ꪮ",
        "ꪲꪒ"
      ],
      [
        "ꪮ",
        "ꪴꪀ"
      ],
      [
        "ꪯ",
        "ꪥ"
      ],
      [
        "ꪵ",
        "ꪑ"
      ],
      [
        "ꪷ",
        "꫁ꪀ"
      ],
      [
        "ꪹ",
        "ꪗ"
      ],
      [
        "ꪻ",
        "ꪝ"
      ],
      [
        "ꪼ",
        "ꪔ꫁"
      ],
      [
        "ꪹꪚ",
        "ꪸꪚ"
      ],
      [
        "ꪶꪀ",
        "ꪒ"
      ],
      [
        "ꪵꪀ",
        "꪿ꪀ"
      ],
      [
        "ꪹꪎ",
        "ꪱ꫁"
      ],
      [
        "ꪶꪁ",
        "꪿"
      ],
      [
        "ꪶꪔ",
        "ꪙ"
      ],
      [
        "ꪶꪔ",
        "꫁ꪣ"
      ],
      [
        "ꪵꪄ",
        "꪿ꪉ"
      ],
      [
        "ꪹꪁ",
        "ꪚ"
      ],
      [
        "ꪹꪮ",
        "ꪷꪙ"
      ],
      [
        "ꪵꪁ",
        "ꪉ"
      ],
      [
        "ꪵꪁ",
        "ꪩꪒ"
      ],
      [
        "ꪶꪚ",
        "꪿ꪀ"
      ],
      [
        "ꪣꪳ",
        "꪿ꪙ"
      ],
      [
        "ꪼꪜ",
        "꫁"
      ],
      [
        "ꪵꪩ",
        "꫁"
      ],
      [
        "ꪶꪄ",
        "ꪒ"
      ],
      [
        "ꪶꪄ",
        "꫁"
      ],
      [
        "ꪹꪬ",
        "꪿"
      ],
      [
        "ꪶꪭ",
        "ꪉ"
      ],
      [
        "ꪵꪜ",
        "꪿"
      ],
      [
        "ꪹꪏ",
        "ꪷ"
      ],
      [
        "ꪵꪠ",
        "ꪉ"
      ],
      [
        "ꪵꪠ",
        "꫁ꪫ"
      ],
      [
        "ꪵꪮ",
        "꪿ꪙ"
      ],
      [
        "ꪹꪝ",
        "ꪷꪉ"
      ],
      [
        "ꪶꪠ",
        "ꪉ"
      ],
      [
        "ꪵꪕ",
        "ꪙ"
      ],
      [
        "ꪁꪩ",
        "ꪮꪒ"
      ],
      [
        "ꪹꪅ",
        "ꪷꪥ"
      ],
      [
        "ꪵꪏ",
        "ꪒ"
      ],
      [
        "ꪶꪊ",
        "꪿ꪣ"
      ],
      [
        "ꪶꪨ",
        "ꪣ"
      ],
      [
        "ꪹꪛ",
        "ꪸ"
      ],
      [
        "ꪹꪤ",
        "ꪷꪙ"
      ],
      [
        "ꪶꪝ",
        "꫁"
      ],
      [
        "ꪹꪒ",
        "ꪷꪙ"
      ],
      [
        "ꪵꪙ",
        "ꪙ"
      ],
      [
        "ꪶꪋ",
        "ꪚ"
      ],
      [
        "ꪶꪋ",
        "ꪣ"
      ],
      [
        "ꪶꪡ",
        "ꪚ"
      ],
      [
        "ꪼꪕ",
        "꫁"
      ],
      [
        "ꪹꪁꪷ",
        "ꪣ"
      ],
      [
        "ꪶꪒ",
        "ꪉ"
      ],
      [
        "ꪶꪤ",
        "꪿ꪀ"
      ],
      [
        "ꪀꪫ",
        "ꪱꪒ"
      ],
      [
        "ꪻꪚ",
        "꫁"
      ],
      [
        "ꪶꪅ",
        "ꪥ"
      ],
      [
        "ꪵꪀꪫ",
        "꪿ꪉ"
      ],
      [
        "ꪄꪫ",
        "ꪱꪀ"
      ],
      [
        "ꪵꪅꪫ",
        "ꪙ"
      ],
      [
        "ꪹꪈ",
        "ꪱ"
      ],
      [
        "ꪻꪁ",
        "꪿"
      ],
      [
        "ꪹꪯꪸ",
        "ꪩꪒ"
      ],
      [
        "ꪀ",
        "ꪴ"
      ],
      [
        "ꪀ",
        "ꪺ"
      ],
      [
        "ꪀ",
        "꪿ꪱꪙ"
      ],
      [
        "ꪀ",
        "ꪲꪚ"
      ],
      [
        "ꪀ",
        "ꪸ꪿ꪫ"
      ],
      [
        "ꪀ",
        "ꪴ꫁ꪉ"
      ],
      [
        "ꪀ",
        "꪿ꪫꪱ"
      ],
      [
        "ꪀ",
        "ꪺꪥ"
      ],
      [
        "ꪁ",
        "ꪙ"
      ],
      [
        "ꪁ",
        "꫁ꪱ"
      ],
      [
        "ꪁ",
        "ꪮꪀ"
      ],
      [
        "ꪁ",
        "ꪸꪙ"
      ],
      [
        "ꪁ",
        "꪿ꪱꪉ"
      ],
      [
        "ꪁ",
        "꫁ꪮꪥ"
      ],
      [
        "ꪁ",
        "꫁ꪱꪥ"
      ],
      [
        "ꪁ",
        "꫁ꪮꪉ"
      ],
      [
        "ꪁ",
        "꪿ꪱꪙ"
      ],
      [
        "ꪁ",
        "ꪴꪙ"
      ],
      [
        "ꪁ",
        "ꪳꪚ"
      ],
      [
        "ꪁ",
        "꪿ꪫꪱ"
      ],
      [
        "ꪁ",
        "ꪥꪱꪚ"
      ],
      [
        "ꪄ",
        "ꪺ"
      ],
      [
        "ꪄ",
        "ꪲꪙ"
      ],
      [
        "ꪄ",
        "꪿ꪱꪉ"
      ],
      [
        "ꪄ",
        "꪿ꪱꪫ"
      ],
      [
        "ꪄ",
        "ꪺꪒ"
      ],
      [
        "ꪄ",
        "ꪫꪱ"
      ],
      [
        "ꪄ",
        "ꪺꪚ"
      ],
      [
        "ꪅ",
        "ꪱꪙ"
      ],
      [
        "ꪅ",
        "ꪙꪰꪀ"
      ],
      [
        "ꪉ",
        "ꪮꪙ"
      ],
      [
        "ꪊ",
        "꫁ꪱꪥ"
      ],
      [
        "ꪊ",
        "꪿ꪱꪥ"
      ],
      [
        "ꪊ",
        "ꪲꪚ"
      ],
      [
        "ꪊ",
        "ꪲ꪿ꪉ"
      ],
      [
        "ꪊ",
        "꪿ꪱꪣ"
      ],
      [
        "ꪊ",
        "ꪺꪚ"
      ],
      [
        "ꪋ",
        "ꪴ"
      ],
      [
        "ꪋ",
        "ꪽ"
      ],
      [
        "ꪋ",
        "ꪰꪀ"
      ],
      [
        "ꪋ",
        "꫁ꪽ"
      ],
      [
        "ꪋ",
        "ꪴ꫁"
      ],
      [
        "ꪋ",
        "ꪲꪉ"
      ],
      [
        "ꪋ",
        "ꪴ꪿ꪣ"
      ],
      [
        "ꪋ",
        "ꪴ꫁ꪀ"
      ],
      [
        "ꪎ",
        "ꪨ"
      ],
      [
        "ꪎ",
        "ꪽ"
      ],
      [
        "ꪎ",
        "꪿ꪱ"
      ],
      [
        "ꪎ",
        "ꪾꪚ"
      ],
      [
        "ꪎ",
        "꪿ꪱꪫ"
      ],
      [
        "ꪎ",
        "ꪰ꪿ꪉ"
      ],
      [
        "ꪎ",
        "ꪴꪣ"
      ],
      [
        "ꪎ",
        "꫁ꪱꪣ"
      ],
      [
        "ꪎ",
        "ꪴꪉ"
      ],
      [
        "ꪏ",
        "ꪮꪉ"
      ],
      [
        "ꪏ",
        "꫁ꪮꪉ"
      ],
      [
        "ꪐ",
        "ꪾ꫁"
      ],
      [
        "ꪑ",
        "ꪲ"
      ],
      [
        "ꪑ",
        "ꪮꪙ"
      ],
      [
        "ꪒ",
        "ꪺ"
      ],
      [
        "ꪒ",
        "ꪱꪚ"
      ],
      [
        "ꪒ",
        "ꪰ꪿ꪉ"
      ],
      [
        "ꪒ",
        "ꪰ꫁ꪉ"
      ],
      [
        "ꪒ",
        "꪿ꪺꪙ"
      ],
      [
        "ꪔ",
        "ꪘ"
      ],
      [
        "ꪔ",
        "ꪱꪀ"
      ],
      [
        "ꪔ",
        "ꪷ꫁"
      ],
      [
        "ꪔ",
        "ꪴ꪿ꪣ"
      ],
      [
        "ꪔ",
        "꪿ꪮꪀ"
      ],
      [
        "ꪕ",
        "ꪮꪉ"
      ],
      [
        "ꪕ",
        "ꪱꪚ"
      ],
      [
        "ꪕ",
        "ꪰꪉ"
      ],
      [
        "ꪕ",
        "꫁ꪱꪥ"
      ],
      [
        "ꪕ",
        "꪿ꪮꪉ"
      ],
      [
        "ꪕ",
        "꪿ꪱꪙ"
      ],
      [
        "ꪕ",
        "ꪸ꪿ꪉ"
      ],
      [
        "ꪖ",
        "ꪴ꪿"
      ],
      [
        "ꪖ",
        "꪿ꪱꪉ"
      ],
      [
        "ꪖ",
        "ꪰꪒ"
      ],
      [
        "ꪖ",
        "ꪴꪀ"
      ],
      [
        "ꪖ",
        "ꪴ꪿ꪀ"
      ],
      [
        "ꪗ",
        "ꪴ"
      ],
      [
        "ꪘ",
        "ꪺꪒ"
      ],
      [
        "ꪘ",
        "ꪸꪫ"
      ],
      [
        "ꪘ",
        "ꪳ꫁ꪉ"
      ],
      [
        "ꪙ",
        "ꪾꪚ"
      ],
      [
        "ꪙ",
        "꫁ꪮꪀ"
      ],
      [
        "ꪚ",
        "ꪸꪙ"
      ],
      [
        "ꪚ",
        "ꪰꪉ"
      ],
      [
        "ꪚ",
        "ꪲ꫁"
      ],
      [
        "ꪚ",
        "꪿ꪺꪉ"
      ],
      [
        "ꪚ",
        "ꪸ꪿ꪙ"
      ],
      [
        "ꪜ",
        "ꪴꪒ"
      ],
      [
        "ꪜ",
        "꫁ꪱꪫ"
      ],
      [
        "ꪜ",
        "ꪳꪙ"
      ],
      [
        "ꪜ",
        "ꪺꪒ"
      ],
      [
        "ꪝ",
        "ꪚ"
      ],
      [
        "ꪝ",
        "ꪷ꫁"
      ],
      [
        "ꪝ",
        "꪿ꪱꪥ"
      ],
      [
        "ꪝ",
        "ꪩꪱꪣ"
      ],
      [
        "ꪠ",
        "ꪮꪀ"
      ],
      [
        "ꪠ",
        "ꪮꪙ"
      ],
      [
        "ꪠ",
        "ꪴ꪿"
      ],
      [
        "ꪠ",
        "꫁ꪱꪙ"
      ],
      [
        "ꪠ",
        "ꪳꪒ"
      ],
      [
        "ꪢ",
        "ꪷ"
      ],
      [
        "ꪢ",
        "꫁ꪺ"
      ],
      [
        "ꪢ",
        "꫁ꪱꪥ"
      ],
      [
        "ꪢ",
        "꫁ꪱꪙ"
      ],
      [
        "ꪢ",
        "꫁ꪮꪣ"
      ],
      [
        "ꪢ",
        "ꪲ꪿ꪙ"
      ],
      [
        "ꪣ",
        "ꪮꪙ"
      ],
      [
        "ꪣ",
        "ꪱꪒ"
      ],
      [
        "ꪣ",
        "ꪮꪒ"
      ],
      [
        "ꪣ",
        "ꪰꪒ"
      ],
      [
        "ꪣ",
        "꪿ꪺꪉ"
      ],
      [
        "ꪤ",
        "꫁ꪱ"
      ],
      [
        "ꪤ",
        "ꪮꪀ"
      ],
      [
        "ꪤ",
        "꫁ꪮꪥ"
      ],
      [
        "ꪤ",
        "ꪮꪒ"
      ],
      [
        "ꪤ",
        "ꪱꪣ"
      ],
      [
        "ꪤ",
        "ꪰꪒ"
      ],
      [
        "ꪤ",
        "꫁ꪮꪙ"
      ],
      [
        "ꪤ",
        "ꪳꪙ"
      ],
      [
        "ꪤ",
        "꪿ꪽ"
      ],
      [
        "ꪥ",
        "꫁ꪱ"
      ],
      [
        "ꪥ",
        "ꪮꪣ"
      ],
      [
        "ꪥ",
        "ꪳꪒ"
      ],
      [
        "ꪥ",
        "꫁ꪮꪀ"
      ],
      [
        "ꪨ",
        "ꪚ"
      ],
      [
        "ꪨ",
        "ꪽ"
      ],
      [
        "ꪨ",
        "ꪮꪙ"
      ],
      [
        "ꪨ",
        "꫁ꪮꪥ"
      ],
      [
        "ꪨ",
        "꫁ꪮꪙ"
      ],
      [
        "ꪩ",
        "ꪉ"
      ],
      [
        "ꪩ",
        "ꪮꪉ"
      ],
      [
        "ꪩ",
        "ꪲꪒ"
      ],
      [
        "ꪩ",
        "ꪱꪚ"
      ],
      [
        "ꪩ",
        "꫁ꪱꪥ"
      ],
      [
        "ꪩ",
        "ꪴ꫁"
      ],
      [
        "ꪩ",
        "꪿ꪮꪉ"
      ],
      [
        "ꪩ",
        "ꪲ꫁"
      ],
      [
        "ꪩ",
        "꪿ꪱꪙ"
      ],
      [
        "ꪩ",
        "ꪮꪥ"
      ],
      [
        "ꪩ",
        "ꪴꪙ"
      ],
      [
        "ꪩ",
        "ꪲꪫ"
      ],
      [
        "ꪪ",
        "ꪱꪥ"
      ],
      [
        "ꪪ",
        "ꪱꪉ"
      ],
      [
        "ꪪ",
        "꪿ꪱꪙ"
      ],
      [
        "ꪫ",
        "ꪱꪥ"
      ],
      [
        "ꪫ",
        "ꪱꪙ"
      ],
      [
        "ꪫ",
        "ꪱꪒ"
      ],
      [
        "ꪫ",
        "꫁ꪽ"
      ],
      [
        "ꪫ",
        "꪿ꪮꪉ"
      ],
      [
        "ꪬ",
        "ꪉ"
      ],
      [
        "ꪬ",
        "ꪾ"
      ],
      [
        "ꪬ",
        "ꪮꪀ"
      ],
      [
        "ꪬ",
        "꪿ꪱꪫ"
      ],
      [
        "ꪬ",
        "ꪴꪚ"
      ],
      [
        "ꪬ",
        "꫁ꪮꪣ"
      ],
      [
        "ꪭ",
        "ꪷ꪿"
      ],
      [
        "ꪭ",
        "ꪲꪒ"
      ],
      [
        "ꪭ",
        "ꪱꪫ"
      ],
      [
        "ꪭ",
        "ꪸꪉ"
      ],
      [
        "ꪭ",
        "꫁ꪱꪫ"
      ],
      [
        "ꪭ",
        "ꪳꪙ"
      ],
      [
        "ꪭ",
        "ꪳ꫁ꪙ"
      ],
      [
        "ꪭ",
        "ꪲ꫁ꪫ"
      ],
      [
        "ꪭ",
        "꪿ꪺꪣ"
      ],
      [
        "ꪮ",
        "ꪲ"
      ],
      [
        "ꪮ",
        "ꪾꪚ"
      ],
      [
        "ꪮ",
        "ꪲꪉ"
      ],
      [
        "ꪮ",
        "꪿ꪽ"
      ],
      [
        "ꪮ",
        "ꪸꪫ"
      ],
      [
        "ꪯ",
        "ꪩ"
      ],
      [
        "ꪯ",
        "ꪱꪥ"
      ],
      [
        "ꪯ",
        "ꪳ꪿"
      ],
      [
        "ꪵ",
        "ꪛ"
      ],
      [
        "ꪹ",
        "ꪮꪙ"
      ],
      [
        "ꪻ",
        "ꪥ"
      ],
      [
        "ꪼ",
        "ꪮ"
      ],
      [
        "ꪼ",
        "ꪋ꫁"
      ],
      [
        "ꪹꪄ",
        "ꪱ꪿"
      ],
      [
        "ꪲ꪿",
        "ꪣ"
      ],
      [
        "ꪶꪎ",
        "ꪒ"
      ],
      [
        "ꪹꪀ",
        "ꪸꪫ"
      ],
      [
        "ꪹꪀ",
        "ꪸ꪿ꪀ"
      ],
      [
        "ꪶꪔ",
        "꪿ꪉ"
      ],
      [
        "ꪹꪜ",
        "ꪸꪒ"
      ],
      [
        "ꪵꪄ",
        "꫁ꪣ"
      ],
      [
        "ꪹꪋ",
        "ꪉ"
      ],
      [
        "ꪶꪩ",
        "꪿"
      ],
      [
        "ꪹꪁ",
        "ꪸ꪿ꪉ"
      ],
      [
        "ꪹꪁ",
        "ꪷꪉ"
      ],
      [
        "ꪹꪁ",
        "ꪝꪚ"
      ],
      [
        "ꪹꪨ",
        "꪿ꪥ"
      ],
      [
        "ꪹꪮ",
        "꫁ꪱ"
      ],
      [
        "ꪹꪩ",
        "ꪸ"
      ],
      [
        "ꪹꪩ",
        "ꪸꪙ"
      ],
      [
        "ꪶꪚ",
        "꪿ꪙ"
      ],
      [
        "ꪶꪚ",
        "꪿ꪣ"
      ],
      [
        "ꪹꪕ",
        "ꪸꪒ"
      ],
      [
        "ꪵꪎ",
        "ꪒ"
      ],
      [
        "ꪵꪎ",
        "꪿ꪉ"
      ],
      [
        "ꪵꪎ",
        "꫁ꪙ"
      ],
      [
        "ꪜꪲ",
        "ꪀ"
      ],
      [
        "ꪵꪒ",
        "꪿ꪙ"
      ],
      [
        "ꪵꪩ",
        "꫁ꪉ"
      ],
      [
        "ꪹꪬ",
        "ꪱ꪿"
      ],
      [
        "ꪶꪭ",
        "ꪥ"
      ],
      [
        "ꪶꪭ",
        "꫁ꪀ"
      ],
      [
        "ꪹꪏ",
        "ꪷ꫁"
      ],
      [
        "ꪹꪏ",
        "꫁ꪥ"
      ],
      [
        "ꪵꪠ",
        "ꪙ"
      ],
      [
        "ꪵꪠ",
        "꪿"
      ],
      [
        "ꪵꪮ",
        "꫁ꪫ"
      ],
      [
        "ꪵꪮ",
        "꪿ꪫ"
      ],
      [
        "ꪎꪳ",
        "ꪉ"
      ],
      [
        "ꪹꪙ",
        "ꪉ"
      ],
      [
        "ꪹꪝ",
        "꪿"
      ],
      [
        "ꪹꪝ",
        "ꪷ꪿ꪉ"
      ],
      [
        "ꪏꪩ",
        "ꪰꪀ"
      ],
      [
        "ꪶꪜ",
        "ꪀ"
      ],
      [
        "ꪶꪠ",
        "꪿"
      ],
      [
        "ꪹꪖ",
        "꫁ꪱ"
      ],
      [
        "ꪹꪖ",
        "ꪷ꪿ꪀ"
      ],
      [
        "ꪵꪝ",
        "ꪀ"
      ],
      [
        "ꪵꪝ",
        "ꪙ"
      ],
      [
        "ꪵꪬ",
        "ꪀ"
      ],
      [
        "ꪶꪙ",
        "ꪣ"
      ],
      [
        "ꪁꪩ",
        "ꪷ꪿"
      ],
      [
        "ꪁꪩ",
        "ꪱꪒ"
      ],
      [
        "ꪹꪢ",
        "ꪉ"
      ],
      [
        "ꪹꪅ",
        "ꪱ"
      ],
      [
        "ꪶꪬ",
        "꪿ꪉ"
      ],
      [
        "ꪶꪬ",
        "꫁ꪣ"
      ],
      [
        "ꪹꪘ",
        "꪿ꪥ"
      ],
      [
        "ꪵꪊ",
        "ꪀ"
      ],
      [
        "ꪶꪨ",
        "ꪚ"
      ],
      [
        "ꪶꪨ",
        "꫁ꪥ"
      ],
      [
        "ꪶꪝ",
        "꫁ꪥ"
      ],
      [
        "ꪹꪒ",
        "ꪷꪣ"
      ],
      [
        "ꪼꪡ",
        "꪿"
      ],
      [
        "ꪵꪙ",
        "꪿ꪫ"
      ],
      [
        "ꪶꪏ",
        "ꪙ"
      ],
      [
        "ꪶꪏ",
        "ꪣ"
      ],
      [
        "ꪶꪡ",
        "꪿"
      ],
      [
        "ꪼꪕ",
        "꪿"
      ],
      [
        "ꪹꪁꪷ",
        "ꪕꪙ"
      ],
      [
        "ꪶꪒ",
        "ꪙ"
      ],
      [
        "ꪵꪘ",
        "꫁ꪙ"
      ],
      [
        "ꪵꪪ",
        "ꪙ"
      ],
      [
        "ꪵꪖ",
        "ꪙ"
      ],
      [
        "ꪹꪚꪷ",
        "ꪬꪉ"
      ],
      [
        "ꪼꪚ",
        "꫁"
      ],
      [
        "ꪹꪁꪸ",
        "ꪩ꪿ꪙ"
      ],
      [
        "ꪼꪬ",
        "꪿"
      ],
      [
        "ꪶꪯꪥ",
        "ꪒ"
      ],
      [
        "ꪼꪠ",
        "꪿"
      ],
      [
        "ꪼꪔ",
        "꪿"
      ],
      [
        "ꪀ",
        "ꪱꪙ"
      ],
      [
        "ꪀ",
        "ꪰꪉ"
      ],
      [
        "ꪀ",
        "꫁ꪺ"
      ],
      [
        "ꪀ",
        "꫁ꪱꪉ"
      ],
      [
        "ꪀ",
        "ꪰ꫁ꪉ"
      ],
      [
        "ꪀ",
        "ꪲ꪿ꪉ"
      ],
      [
        "ꪁ",
        "ꪱꪫ"
      ],
      [
        "ꪁ",
        "꪿ꪱꪥ"
      ],
      [
        "ꪁ",
        "ꪸꪫ"
      ],
      [
        "ꪁ",
        "ꪳ꪿ꪙ"
      ],
      [
        "ꪄ",
        "ꪾ"
      ],
      [
        "ꪄ",
        "꪿"
      ],
      [
        "ꪄ",
        "꫁ꪺ"
      ],
      [
        "ꪄ",
        "ꪷ꫁"
      ],
      [
        "ꪄ",
        "ꪮꪚ"
      ],
      [
        "ꪄ",
        "ꪰ꫁ꪉ"
      ],
      [
        "ꪄ",
        "ꪲ꪿ꪉ"
      ],
      [
        "ꪅ",
        "ꪴꪒ"
      ],
      [
        "ꪈ",
        "ꪽ"
      ],
      [
        "ꪈ",
        "꫁ꪉ"
      ],
      [
        "ꪉ",
        "ꪷ"
      ],
      [
        "ꪉ",
        "꪿ꪱ"
      ],
      [
        "ꪉ",
        "ꪱꪉ"
      ],
      [
        "ꪉ",
        "ꪰꪀ"
      ],
      [
        "ꪉ",
        "꫁ꪫ"
      ],
      [
        "ꪉ",
        "ꪰꪒ"
      ],
      [
        "ꪉ",
        "ꪺꪙ"
      ],
      [
        "ꪉ",
        "꪿ꪱꪣ"
      ],
      [
        "ꪉ",
        "ꪫꪱ"
      ],
      [
        "ꪊ",
        "꫁ꪱ"
      ],
      [
        "ꪊ",
        "ꪷ꪿"
      ],
      [
        "ꪊ",
        "ꪮꪀ"
      ],
      [
        "ꪊ",
        "ꪴꪀ"
      ],
      [
        "ꪊ",
        "꫁ꪱꪫ"
      ],
      [
        "ꪊ",
        "ꪸꪣ"
      ],
      [
        "ꪊ",
        "ꪲꪣ"
      ],
      [
        "ꪊ",
        "ꪲꪀ"
      ],
      [
        "ꪊ",
        "ꪲ꫁ꪣ"
      ],
      [
        "ꪋ",
        "ꪺ"
      ],
      [
        "ꪋ",
        "ꪴ꪿"
      ],
      [
        "ꪋ",
        "ꪰꪉ"
      ],
      [
        "ꪋ",
        "ꪲ꪿"
      ],
      [
        "ꪋ",
        "ꪸꪉ"
      ],
      [
        "ꪋ",
        "꪿ꪺꪉ"
      ],
      [
        "ꪎ",
        "꫁ꪱꪫ"
      ],
      [
        "ꪎ",
        "ꪴꪙ"
      ],
      [
        "ꪎ",
        "꪿ꪺꪙ"
      ],
      [
        "ꪏ",
        "ꪱ"
      ],
      [
        "ꪏ",
        "ꪴ"
      ],
      [
        "ꪏ",
        "ꪱꪥ"
      ],
      [
        "ꪏ",
        "ꪮꪙ"
      ],
      [
        "ꪏ",
        "ꪲꪒ"
      ],
      [
        "ꪏ",
        "꫁ꪮꪙ"
      ],
      [
        "ꪏ",
        "ꪴꪒ"
      ],
      [
        "ꪏ",
        "ꪺꪙ"
      ],
      [
        "ꪏ",
        "꪿ꪽ"
      ],
      [
        "ꪐ",
        "ꪽ"
      ],
      [
        "ꪐ",
        "꫁ꪽ"
      ],
      [
        "ꪑ",
        "ꪴ"
      ],
      [
        "ꪑ",
        "ꪷ꪿"
      ],
      [
        "ꪑ",
        "ꪱꪀ"
      ],
      [
        "ꪑ",
        "ꪰꪀ"
      ],
      [
        "ꪑ",
        "ꪱꪒ"
      ],
      [
        "ꪑ",
        "꪿ꪮꪙ"
      ],
      [
        "ꪑ",
        "ꪾ꪿"
      ],
      [
        "ꪑ",
        "꪿ꪱꪣ"
      ],
      [
        "ꪒ",
        "꫁ꪱ"
      ],
      [
        "ꪒ",
        "ꪲ꫁"
      ],
      [
        "ꪒ",
        "ꪳ꪿ꪀ"
      ],
      [
        "ꪓ",
        "ꪱꪫ"
      ],
      [
        "ꪔ",
        "ꪰꪀ"
      ],
      [
        "ꪔ",
        "ꪱꪙ"
      ],
      [
        "ꪔ",
        "ꪱꪒ"
      ],
      [
        "ꪔ",
        "ꪾꪚ"
      ],
      [
        "ꪔ",
        "ꪱꪫ"
      ],
      [
        "ꪔ",
        "꫁ꪱꪙ"
      ],
      [
        "ꪔ",
        "꪿ꪱꪙ"
      ],
      [
        "ꪔ",
        "ꪸꪀ"
      ],
      [
        "ꪔ",
        "ꪴ꪿ꪉ"
      ],
      [
        "ꪕ",
        "ꪴ"
      ],
      [
        "ꪕ",
        "ꪽ"
      ],
      [
        "ꪕ",
        "ꪱꪥ"
      ],
      [
        "ꪕ",
        "ꪮꪀ"
      ],
      [
        "ꪕ",
        "꫁ꪮꪙ"
      ],
      [
        "ꪖ",
        "ꪴ"
      ],
      [
        "ꪖ",
        "ꪰ꪿ꪉ"
      ],
      [
        "ꪖ",
        "꪿ꪱꪙ"
      ],
      [
        "ꪖ",
        "꫁ꪺꪙ"
      ],
      [
        "ꪘ",
        "꪿ꪮꪉ"
      ],
      [
        "ꪘ",
        "ꪲꪚ"
      ],
      [
        "ꪘ",
        "꪿ꪮꪣ"
      ],
      [
        "ꪙ",
        "ꪲ"
      ],
      [
        "ꪙ",
        "ꪲꪙ"
      ],
      [
        "ꪙ",
        "ꪱꪚ"
      ],
      [
        "ꪚ",
        "ꪬ"
      ],
      [
        "ꪚ",
        "꫁ꪱꪉ"
      ],
      [
        "ꪚ",
        "ꪳꪙ"
      ],
      [
        "ꪚ",
        "ꪸ꫁"
      ],
      [
        "ꪚ",
        "ꪳꪒ"
      ],
      [
        "ꪚ",
        "꪿ꪮꪣ"
      ],
      [
        "ꪛ",
        "ꪱ"
      ],
      [
        "ꪛ",
        "ꪱꪚ"
      ],
      [
        "ꪛ",
        "ꪲꪉ"
      ],
      [
        "ꪜ",
        "ꪷ"
      ],
      [
        "ꪜ",
        "ꪾꪚ"
      ],
      [
        "ꪜ",
        "ꪮꪒ"
      ],
      [
        "ꪜ",
        "꫁ꪱꪥ"
      ],
      [
        "ꪜ",
        "꪿ꪱꪫ"
      ],
      [
        "ꪜ",
        "꪿ꪱꪙ"
      ],
      [
        "ꪜ",
        "꪿ꪮꪥ"
      ],
      [
        "ꪜ",
        "ꪸ꪿ꪉ"
      ],
      [
        "ꪜ",
        "ꪴ꫁ꪣ"
      ],
      [
        "ꪜ",
        "ꪺꪀ"
      ],
      [
        "ꪝ",
        "ꪩ"
      ],
      [
        "ꪝ",
        "꫁ꪮꪉ"
      ],
      [
        "ꪝ",
        "ꪳꪒ"
      ],
      [
        "ꪠ",
        "ꪷ꪿"
      ],
      [
        "ꪠ",
        "ꪲꪙ"
      ],
      [
        "ꪠ",
        "ꪰꪉ"
      ],
      [
        "ꪠ",
        "ꪮꪥ"
      ],
      [
        "ꪠ",
        "ꪴ꪿ꪀ"
      ],
      [
        "ꪡ",
        "ꪲ"
      ],
      [
        "ꪡ",
        "ꪴ"
      ],
      [
        "ꪡ",
        "ꪾꪚ"
      ],
      [
        "ꪡ",
        "꪿ꪮꪉ"
      ],
      [
        "ꪡ",
        "꫁ꪮꪙ"
      ],
      [
        "ꪡ",
        "꫁ꪱꪫ"
      ],
      [
        "ꪡ",
        "ꪺꪀ"
      ],
      [
        "ꪡ",
        "ꪴ꫁ꪉ"
      ],
      [
        "ꪢ",
        "ꪮꪙ"
      ],
      [
        "ꪢ",
        "ꪾ꫁"
      ],
      [
        "ꪢ",
        "꪿ꪽ"
      ],
      [
        "ꪢ",
        "꫁ꪱꪣ"
      ],
      [
        "ꪢ",
        "ꪳ꪿ꪙ"
      ],
      [
        "ꪢ",
        "ꪳ꪿ꪀ"
      ],
      [
        "ꪣ",
        "ꪷ"
      ],
      [
        "ꪣ",
        "ꪮꪀ"
      ],
      [
        "ꪣ",
        "ꪱꪚ"
      ],
      [
        "ꪤ",
        "꫁ꪮꪉ"
      ],
      [
        "ꪤ",
        "ꪸꪉ"
      ],
      [
        "ꪤ",
        "꫁ꪱꪉ"
      ],
      [
        "ꪥ",
        "ꪒ"
      ],
      [
        "ꪥ",
        "ꪱꪙ"
      ],
      [
        "ꪥ",
        "꪿ꪺ"
      ],
      [
        "ꪥ",
        "꫁ꪮꪥ"
      ],
      [
        "ꪥ",
        "ꪱꪫ"
      ],
      [
        "ꪥ",
        "ꪴꪚ"
      ],
      [
        "ꪨ",
        "꪿ꪙ"
      ],
      [
        "ꪨ",
        "ꪱꪣ"
      ],
      [
        "ꪨ",
        "ꪴꪚ"
      ],
      [
        "ꪨ",
        "ꪲ꪿ꪫ"
      ],
      [
        "ꪩ",
        "ꪚ"
      ],
      [
        "ꪩ",
        "ꪱꪙ"
      ],
      [
        "ꪩ",
        "ꪱꪫ"
      ],
      [
        "ꪩ",
        "ꪸꪉ"
      ],
      [
        "ꪩ",
        "ꪾ꪿"
      ],
      [
        "ꪩ",
        "꫁ꪮꪣ"
      ],
      [
        "ꪩ",
        "ꪸꪚ"
      ],
      [
        "ꪩ",
        "ꪲ꫁ꪉ"
      ],
      [
        "ꪪ",
        "꫁ꪱ"
      ],
      [
        "ꪫ",
        "ꪷ꪿"
      ],
      [
        "ꪫ",
        "ꪮꪙ"
      ],
      [
        "ꪫ",
        "ꪾ꫁"
      ],
      [
        "ꪫ",
        "ꪰꪉ"
      ],
      [
        "ꪫ",
        "ꪳꪒ"
      ],
      [
        "ꪬ",
        "ꪨ"
      ],
      [
        "ꪬ",
        "ꪱꪒ"
      ],
      [
        "ꪬ",
        "꫁ꪮꪥ"
      ],
      [
        "ꪬ",
        "꫁ꪱꪙ"
      ],
      [
        "ꪬ",
        "꪿ꪮꪙ"
      ],
      [
        "ꪬ",
        "ꪲꪚ"
      ],
      [
        "ꪬ",
        "ꪲ꪿ꪉ"
      ],
      [
        "ꪬ",
        "꫁ꪺꪥ"
      ],
      [
        "ꪬ",
        "꪿ꪺꪙ"
      ],
      [
        "ꪭ",
        "ꪷ"
      ],
      [
        "ꪭ",
        "ꪱꪙ"
      ],
      [
        "ꪭ",
        "ꪮꪀ"
      ],
      [
        "ꪭ",
        "ꪸꪙ"
      ],
      [
        "ꪭ",
        "ꪾꪚ"
      ],
      [
        "ꪭ",
        "ꪮꪚ"
      ],
      [
        "ꪭ",
        "꫁ꪽ"
      ],
      [
        "ꪭ",
        "ꪰ꪿ꪉ"
      ],
      [
        "ꪭ",
        "ꪸ꪿"
      ],
      [
        "ꪮ",
        "ꪷ"
      ],
      [
        "ꪮ",
        "ꪷ꫁"
      ],
      [
        "ꪮ",
        "꫁ꪺꪥ"
      ],
      [
        "ꪮ",
        "꫁ꪺꪙ"
      ],
      [
        "ꪮ",
        "ꪴ꫁ꪥ"
      ],
      [
        "ꪯ",
        "ꪲ"
      ],
      [
        "ꪲ",
        "꫁ꪀ"
      ],
      [
        "ꪶ",
        "ꪮꪣ"
      ],
      [
        "ꪶ",
        "ꪬ꫁"
      ],
      [
        "ꪻ",
        "ꪄ꪿"
      ],
      [
        "ꪼ",
        "ꪋ"
      ],
      [
        "ꪼ",
        "ꪤ"
      ],
      [
        "ꪹꪚ",
        "ꪷꪙ"
      ],
      [
        "ꪹꪚ",
        "ꪷꪒ"
      ],
      [
        "꪿ꪺ",
        "ꪀ"
      ],
      [
        "꫁ꪫ",
        "ꪱꪉ"
      ],
      [
        "ꪶꪀ",
        "꪿ꪙ"
      ],
      [
        "ꪶꪀ",
        "꪿ꪥ"
      ],
      [
        "ꪹꪭ",
        "ꪒ"
      ],
      [
        "ꪹꪭ",
        "ꪱ꫁"
      ],
      [
        "ꪹꪄ",
        "꫁ꪉ"
      ],
      [
        "ꪵꪀ",
        "꪿ꪣ"
      ],
      [
        "ꪶꪎ",
        "ꪉ"
      ],
      [
        "ꪹꪀ",
        "꫁ꪱ"
      ],
      [
        "ꪹꪀ",
        "ꪱ꪿"
      ],
      [
        "ꪹꪀ",
        "ꪷꪙ"
      ],
      [
        "ꪹꪜ",
        "ꪀ"
      ],
      [
        "ꪹꪋ",
        "꪿"
      ],
      [
        "ꪶꪩ",
        "ꪥ"
      ],
      [
        "ꪶꪩ",
        "꫁ꪀ"
      ],
      [
        "ꪹꪣ",
        "ꪸꪒ"
      ],
      [
        "ꪹꪁ",
        "ꪸ꫁"
      ],
      [
        "ꪹꪨ",
        "꫁ꪣ"
      ],
      [
        "ꪹꪨ",
        "꪿ꪣ"
      ],
      [
        "ꪵꪣ",
        "꫁ꪙ"
      ],
      [
        "ꪹꪥ",
        "ꪉ"
      ],
      [
        "ꪹꪩ",
        "ꪸꪣ"
      ],
      [
        "ꪵꪁ",
        "ꪒ"
      ],
      [
        "ꪵꪁ",
        "ꪙ"
      ],
      [
        "ꪵꪁ",
        "ꪣ"
      ],
      [
        "ꪵꪁ",
        "꪿"
      ],
      [
        "ꪵꪭ",
        "꫁ꪉ"
      ],
      [
        "ꪹꪔ",
        "꫁ꪱ"
      ],
      [
        "ꪹꪔ",
        "꪿ꪉ"
      ],
      [
        "ꪹꪔ",
        "ꪸꪉ"
      ],
      [
        "ꪹꪔ",
        "ꪸ꫁ꪙ"
      ],
      [
        "ꪬꪺ",
        "ꪒ"
      ],
      [
        "ꪹꪕ",
        "ꪸꪙ"
      ],
      [
        "ꪹꪕ",
        "ꪷꪚ"
      ],
      [
        "ꪵꪎ",
        "꫁"
      ],
      [
        "ꪶꪕ",
        "ꪒ"
      ],
      [
        "ꪶꪕ",
        "ꪚ"
      ],
      [
        "ꪵꪩ",
        "ꪚ"
      ],
      [
        "ꪶꪄ",
        "꪿ꪣ"
      ],
      [
        "ꪶꪄ",
        "ꪨꪀ"
      ],
      [
        "ꪶꪭ",
        "ꪚ"
      ],
      [
        "ꪵꪚ",
        "꫁"
      ],
      [
        "ꪵꪚ",
        "꪿ꪉ"
      ],
      [
        "ꪵꪚ",
        "꫁ꪙ"
      ],
      [
        "ꪹꪠ",
        "ꪀ"
      ],
      [
        "ꪹꪠ",
        "ꪱ"
      ],
      [
        "ꪹꪠ",
        "ꪱ꪿"
      ],
      [
        "ꪹꪠ",
        "ꪷ꪿ꪥ"
      ],
      [
        "ꪹꪊ",
        "ꪱ꫁"
      ],
      [
        "ꪹꪯ",
        "꫁ꪀ"
      ],
      [
        "ꪵꪮ",
        "꪿ꪉ"
      ],
      [
        "ꪵꪮ",
        "꫁ꪉ"
      ],
      [
        "ꪹꪫ",
        "ꪸ"
      ],
      [
        "ꪹꪫ",
        "꫁ꪱ"
      ],
      [
        "ꪹꪫ",
        "ꪷꪒ"
      ],
      [
        "ꪹꪫ",
        "ꪷ꪿ꪙ"
      ],
      [
        "ꪹꪉ",
        "꪿ꪙ"
      ],
      [
        "ꪹꪙ",
        "ꪷ꫁"
      ],
      [
        "ꪹꪝ",
        "꫁"
      ],
      [
        "ꪹꪖ",
        "ꪷꪙ"
      ],
      [
        "ꪵꪕ",
        "ꪉ"
      ],
      [
        "ꪵꪕ",
        "ꪒ"
      ],
      [
        "ꪶꪮ",
        "꪿"
      ],
      [
        "ꪹꪢ",
        "ꪥ"
      ],
      [
        "ꪵꪏ",
        "ꪀ"
      ],
      [
        "ꪶꪬ",
        "ꪙ"
      ],
      [
        "ꪶꪬ",
        "ꪣ"
      ],
      [
        "ꪹꪡ",
        "ꪥ"
      ],
      [
        "ꪶꪝ",
        "ꪉ"
      ],
      [
        "ꪶꪯ",
        "ꪩꪒ"
      ],
      [
        "ꪶꪋ",
        "꫁ꪀ"
      ],
      [
        "ꪶꪡ",
        "ꪉ"
      ],
      [
        "ꪶꪖ",
        "ꪥ"
      ],
      [
        "ꪶꪛ",
        "ꪒ"
      ],
      [
        "ꪹꪁꪷ",
        "꫁ꪙ"
      ],
      [
        "ꪶꪒ",
        "ꪥ"
      ],
      [
        "ꪶꪥ",
        "ꪉ"
      ],
      [
        "ꪀ꫁ꪫ",
        "ꪱꪙ"
      ],
      [
        "ꪶꪉ",
        "ꪣ"
      ],
      [
        "ꪵꪥ",
        "ꪚ"
      ],
      [
        "ꪹꪐ",
        "꫁"
      ],
      [
        "ꪹꪐ",
        "ꪸꪙ"
      ],
      [
        "ꪶꪑ",
        "꪿"
      ],
      [
        "ꪶꪑ",
        "꫁ꪀ"
      ],
      [
        "ꪶꪁꪩ",
        "꫁ꪀ"
      ],
      [
        "ꪵꪖ",
        "ꪫ"
      ],
      [
        "ꪻꪠ",
        "꪿"
      ],
      [
        "ꪼꪪ",
        "꫁"
      ],
      [
        "ꪼꪝ",
        "꪿"
      ],
      [
        "ꪵꪅꪫ",
        "ꪀ"
      ],
      [
        "ꪵꪁꪫ",
        "꫁ꪉ"
      ],
      [
        "ꪻꪝ",
        "꫁"
      ],
      [
        "ꪶꪅꪥ",
        "꫁ꪀ"
      ],
      [
        "ꪁꪙ",
        "꪿ꪮꪉ"
      ],
      [
        "ꪀ",
        "ꪸ"
      ],
      [
        "ꪀ",
        "ꪾ꫁"
      ],
      [
        "ꪀ",
        "ꪰ꪿ꪉ"
      ],
      [
        "ꪀ",
        "ꪴ꪿ꪙ"
      ],
      [
        "ꪀ",
        "꪿ꪮꪣ"
      ],
      [
        "ꪀ",
        "ꪺꪀ"
      ],
      [
        "ꪀ",
        "ꪳꪣ"
      ],
      [
        "ꪀ",
        "ꪫꪱꪉ"
      ],
      [
        "ꪀ",
        "ꪚꪰꪀ"
      ],
      [
        "ꪁ",
        "ꪱꪀ"
      ],
      [
        "ꪁ",
        "꪿ꪮꪙ"
      ],
      [
        "ꪁ",
        "ꪴꪀ"
      ],
      [
        "ꪁ",
        "ꪴꪒ"
      ],
      [
        "ꪁ",
        "ꪴꪚ"
      ],
      [
        "ꪁ",
        "ꪴ꫁ꪀ"
      ],
      [
        "ꪁ",
        "ꪕꪰ꪿ꪉ"
      ],
      [
        "ꪄ",
        "ꪺꪉ"
      ],
      [
        "ꪄ",
        "꫁ꪱꪉ"
      ],
      [
        "ꪄ",
        "ꪸ꪿"
      ],
      [
        "ꪄ",
        "ꪺꪥ"
      ],
      [
        "ꪄ",
        "꪿ꪺꪀ"
      ],
      [
        "ꪅ",
        "꫁ꪱ"
      ],
      [
        "ꪅ",
        "ꪱꪉ"
      ],
      [
        "ꪅ",
        "ꪱꪒ"
      ],
      [
        "ꪅ",
        "ꪴꪙ"
      ],
      [
        "ꪅ",
        "꪿ꪮꪣ"
      ],
      [
        "ꪅ",
        "ꪳ꪿ꪉ"
      ],
      [
        "ꪈ",
        "꪿ꪮꪥ"
      ],
      [
        "ꪈ",
        "ꪸ꫁"
      ],
      [
        "ꪉ",
        "꫁ꪱ"
      ],
      [
        "ꪉ",
        "ꪮꪀ"
      ],
      [
        "ꪉ",
        "ꪺꪉ"
      ],
      [
        "ꪉ",
        "ꪸ꫁"
      ],
      [
        "ꪉ",
        "꪿ꪫꪱꪉ"
      ],
      [
        "ꪊ",
        "ꪨ"
      ],
      [
        "ꪊ",
        "ꪱꪥ"
      ],
      [
        "ꪊ",
        "ꪮꪉ"
      ],
      [
        "ꪊ",
        "ꪴ꪿"
      ],
      [
        "ꪊ",
        "ꪮꪚ"
      ],
      [
        "ꪊ",
        "꫁ꪮꪙ"
      ],
      [
        "ꪊ",
        "ꪺꪙ"
      ],
      [
        "ꪊ",
        "ꪮꪥ"
      ],
      [
        "ꪊ",
        "꫁ꪮꪣ"
      ],
      [
        "ꪊ",
        "ꪳꪒ"
      ],
      [
        "ꪊ",
        "ꪴ꫁ꪣ"
      ],
      [
        "ꪊ",
        "ꪳ꪿ꪉ"
      ],
      [
        "ꪋ",
        "ꪾ"
      ],
      [
        "ꪋ",
        "ꪮꪀ"
      ],
      [
        "ꪋ",
        "ꪱꪒ"
      ],
      [
        "ꪋ",
        "ꪱꪫ"
      ],
      [
        "ꪋ",
        "꪿ꪮꪉ"
      ],
      [
        "ꪋ",
        "꪿ꪱꪫ"
      ],
      [
        "ꪋ",
        "ꪺꪉ"
      ],
      [
        "ꪋ",
        "꫁ꪱꪉ"
      ],
      [
        "ꪋ",
        "ꪴꪚ"
      ],
      [
        "ꪋ",
        "ꪳꪣ"
      ],
      [
        "ꪋ",
        "ꪳ꫁"
      ],
      [
        "ꪎ",
        "ꪲꪙ"
      ],
      [
        "ꪎ",
        "ꪱꪚ"
      ],
      [
        "ꪎ",
        "꫁ꪱꪙ"
      ],
      [
        "ꪎ",
        "꪿ꪮꪙ"
      ],
      [
        "ꪎ",
        "꫁ꪮꪣ"
      ],
      [
        "ꪎ",
        "ꪸ꫁ꪙ"
      ],
      [
        "ꪎ",
        "ꪺꪥ"
      ],
      [
        "ꪏ",
        "꫁ꪱ"
      ],
      [
        "ꪏ",
        "ꪱꪀ"
      ],
      [
        "ꪏ",
        "ꪰꪀ"
      ],
      [
        "ꪏ",
        "ꪰꪒ"
      ],
      [
        "ꪏ",
        "ꪳꪙ"
      ],
      [
        "ꪏ",
        "ꪮꪥ"
      ],
      [
        "ꪏ",
        "ꪰ꫁ꪉ"
      ],
      [
        "ꪏ",
        "ꪺꪀ"
      ],
      [
        "ꪐ",
        "ꪱꪚ"
      ],
      [
        "ꪐ",
        "꫁ꪱꪫ"
      ],
      [
        "ꪐ",
        "ꪾ꪿"
      ],
      [
        "ꪐ",
        "ꪴ꫁ꪣ"
      ],
      [
        "ꪐ",
        "ꪴ꪿ꪀ"
      ],
      [
        "ꪑ",
        "꫁ꪮꪉ"
      ],
      [
        "ꪑ",
        "ꪮꪚ"
      ],
      [
        "ꪑ",
        "꫁ꪽ"
      ],
      [
        "ꪑ",
        "ꪺꪙ"
      ],
      [
        "ꪑ",
        "ꪲꪚ"
      ],
      [
        "ꪑ",
        "ꪴꪉ"
      ],
      [
        "ꪑ",
        "ꪺꪀ"
      ],
      [
        "ꪒ",
        "ꪮꪀ"
      ],
      [
        "ꪒ",
        "꫁ꪮꪥ"
      ],
      [
        "ꪒ",
        "꪿ꪮꪉ"
      ],
      [
        "ꪒ",
        "꫁ꪱꪉ"
      ],
      [
        "ꪒ",
        "ꪮꪥ"
      ],
      [
        "ꪒ",
        "ꪸ꫁ꪙ"
      ],
      [
        "ꪒ",
        "꫁ꪱꪣ"
      ],
      [
        "ꪒ",
        "ꪴ꪿ꪉ"
      ],
      [
        "ꪔ",
        "ꪲ"
      ],
      [
        "ꪔ",
        "ꪮꪉ"
      ],
      [
        "ꪔ",
        "ꪮꪙ"
      ],
      [
        "ꪔ",
        "ꪸꪙ"
      ],
      [
        "ꪔ",
        "ꪲ꪿"
      ],
      [
        "ꪔ",
        "꪿ꪮꪉ"
      ],
      [
        "ꪔ",
        "꫁ꪱꪉ"
      ],
      [
        "ꪔ",
        "ꪲ꫁ꪫ"
      ],
      [
        "ꪔ",
        "꪿ꪮꪣ"
      ],
      [
        "ꪔ",
        "ꪸ꪿ꪙ"
      ],
      [
        "ꪔ",
        "ꪳꪚ"
      ],
      [
        "ꪕ",
        "ꪷ"
      ],
      [
        "ꪕ",
        "ꪱꪫ"
      ],
      [
        "ꪕ",
        "ꪲ꪿"
      ],
      [
        "ꪕ",
        "ꪴ꫁"
      ],
      [
        "ꪕ",
        "ꪮꪥ"
      ],
      [
        "ꪕ",
        "ꪴ꪿ꪣ"
      ],
      [
        "ꪕ",
        "ꪴ꪿ꪉ"
      ],
      [
        "ꪖ",
        "ꪺ"
      ],
      [
        "ꪖ",
        "ꪱꪉ"
      ],
      [
        "ꪖ",
        "ꪮꪉ"
      ],
      [
        "ꪖ",
        "꪿ꪱꪫ"
      ],
      [
        "ꪖ",
        "ꪺꪉ"
      ],
      [
        "ꪖ",
        "꪿ꪱꪥ"
      ],
      [
        "ꪖ",
        "꪿ꪮꪥ"
      ],
      [
        "ꪖ",
        "ꪲꪚ"
      ],
      [
        "ꪖ",
        "ꪲꪫ"
      ],
      [
        "ꪖ",
        "ꪲꪀ"
      ],
      [
        "ꪗ",
        "ꪲ꫁"
      ],
      [
        "ꪗ",
        "ꪴꪉ"
      ],
      [
        "ꪗ",
        "꪿ꪱꪣ"
      ],
      [
        "ꪘ",
        "꪿"
      ],
      [
        "ꪘ",
        "꪿ꪱꪉ"
      ],
      [
        "ꪘ",
        "ꪸꪉ"
      ],
      [
        "ꪘ",
        "ꪲ꫁"
      ],
      [
        "ꪘ",
        "꪿ꪱꪥ"
      ],
      [
        "ꪘ",
        "ꪸ꫁ꪉ"
      ],
      [
        "ꪘ",
        "꪿ꪺꪥ"
      ],
      [
        "ꪘ",
        "ꪳ꫁ꪣ"
      ],
      [
        "ꪙ",
        "ꪾ"
      ],
      [
        "ꪙ",
        "ꪸꪙ"
      ],
      [
        "ꪙ",
        "ꪺꪒ"
      ],
      [
        "ꪚ",
        "꪿"
      ],
      [
        "ꪚ",
        "ꪾꪚ"
      ],
      [
        "ꪚ",
        "ꪮꪣ"
      ],
      [
        "ꪚ",
        "꪿ꪮꪥ"
      ],
      [
        "ꪚ",
        "ꪲꪚ"
      ],
      [
        "ꪚ",
        "ꪸ꫁ꪙ"
      ],
      [
        "ꪚ",
        "ꪴ꫁ꪣ"
      ],
      [
        "ꪚ",
        "꫁ꪱꪣ"
      ],
      [
        "ꪚ",
        "ꪨꪴꪚ"
      ],
      [
        "ꪛ",
        "꪿ꪮꪥ"
      ],
      [
        "ꪛ",
        "ꪺꪒ"
      ],
      [
        "ꪛ",
        "꫁ꪱꪣ"
      ],
      [
        "ꪛ",
        "꫁ꪺꪥ"
      ],
      [
        "ꪛ",
        "ꪴ꪿ꪣ"
      ],
      [
        "ꪛ",
        "ꪳ꫁ꪀ"
      ],
      [
        "ꪜ",
        "ꪸ"
      ],
      [
        "ꪜ",
        "ꪱꪫ"
      ],
      [
        "ꪜ",
        "꫁ꪮꪉ"
      ],
      [
        "ꪜ",
        "ꪲ꫁"
      ],
      [
        "ꪜ",
        "꪿ꪱꪥ"
      ],
      [
        "ꪜ",
        "꪿ꪽ"
      ],
      [
        "ꪜ",
        "ꪳꪒ"
      ],
      [
        "ꪜ",
        "꪿ꪺꪥ"
      ],
      [
        "ꪜ",
        "꪿ꪮꪣ"
      ],
      [
        "ꪜ",
        "꪿ꪮꪀ"
      ],
      [
        "ꪜ",
        "ꪳ꫁ꪉ"
      ],
      [
        "ꪝ",
        "ꪳ"
      ],
      [
        "ꪝ",
        "ꪺ"
      ],
      [
        "ꪝ",
        "ꪰꪀ"
      ],
      [
        "ꪝ",
        "ꪱꪚ"
      ],
      [
        "ꪝ",
        "ꪰꪉ"
      ],
      [
        "ꪝ",
        "꫁ꪺ"
      ],
      [
        "ꪝ",
        "ꪴꪀ"
      ],
      [
        "ꪝ",
        "ꪺꪙ"
      ],
      [
        "ꪝ",
        "ꪴꪚ"
      ],
      [
        "ꪠ",
        "ꪱꪀ"
      ],
      [
        "ꪠ",
        "꪿ꪱꪉ"
      ],
      [
        "ꪠ",
        "ꪲ꪿"
      ],
      [
        "ꪠ",
        "꪿ꪱꪫ"
      ],
      [
        "ꪠ",
        "ꪲ꪿ꪫ"
      ],
      [
        "ꪡ",
        "ꪱꪙ"
      ],
      [
        "ꪡ",
        "ꪮꪒ"
      ],
      [
        "ꪡ",
        "ꪴꪙ"
      ],
      [
        "ꪡ",
        "ꪴꪣ"
      ],
      [
        "ꪡ",
        "ꪳꪒ"
      ],
      [
        "ꪡ",
        "ꪴ꫁ꪀ"
      ],
      [
        "ꪢ",
        "꪿ꪱꪙ"
      ],
      [
        "ꪣ",
        "ꪱꪀ"
      ],
      [
        "ꪣ",
        "꫁ꪺ"
      ],
      [
        "ꪣ",
        "꫁ꪱꪙ"
      ],
      [
        "ꪣ",
        "꪿ꪮꪉ"
      ],
      [
        "ꪣ",
        "ꪴꪒ"
      ],
      [
        "ꪣ",
        "ꪴꪙ"
      ],
      [
        "ꪣ",
        "ꪲ꫁ꪙ"
      ],
      [
        "ꪣ",
        "꪿ꪱꪣ"
      ],
      [
        "ꪣ",
        "꫁ꪺꪙ"
      ],
      [
        "ꪤ",
        "ꪱꪥ"
      ],
      [
        "ꪤ",
        "ꪮꪣ"
      ],
      [
        "ꪤ",
        "ꪲꪚ"
      ],
      [
        "ꪥ",
        "ꪾ"
      ],
      [
        "ꪥ",
        "ꪰꪀ"
      ],
      [
        "ꪥ",
        "꫁ꪮꪙ"
      ],
      [
        "ꪥ",
        "ꪮꪥ"
      ],
      [
        "ꪥ",
        "꫁ꪺꪥ"
      ],
      [
        "ꪨ",
        "ꪱꪒ"
      ],
      [
        "ꪨ",
        "ꪮꪚ"
      ],
      [
        "ꪩ",
        "ꪣ"
      ],
      [
        "ꪩ",
        "꫁ꪮꪥ"
      ],
      [
        "ꪩ",
        "ꪰꪉ"
      ],
      [
        "ꪩ",
        "ꪮꪒ"
      ],
      [
        "ꪩ",
        "ꪷ꫁"
      ],
      [
        "ꪩ",
        "꫁ꪮꪉ"
      ],
      [
        "ꪩ",
        "꫁ꪱꪣ"
      ],
      [
        "ꪩ",
        "ꪳ꪿ꪙ"
      ],
      [
        "ꪩ",
        "ꪳꪚ"
      ],
      [
        "ꪪ",
        "ꪱ"
      ],
      [
        "ꪪ",
        "ꪲ"
      ],
      [
        "ꪪ",
        "ꪲꪒ"
      ],
      [
        "ꪫ",
        "ꪰꪀ"
      ],
      [
        "ꪫ",
        "ꪾꪚ"
      ],
      [
        "ꪫ",
        "ꪮꪚ"
      ],
      [
        "ꪫ",
        "ꪲ꪿ꪉ"
      ],
      [
        "ꪬ",
        "ꪱꪀ"
      ],
      [
        "ꪬ",
        "ꪮꪙ"
      ],
      [
        "ꪬ",
        "꫁ꪱꪉ"
      ],
      [
        "ꪬ",
        "꪿ꪱꪙ"
      ],
      [
        "ꪬ",
        "ꪳꪙ"
      ],
      [
        "ꪬ",
        "꪿ꪺꪉ"
      ],
      [
        "ꪬ",
        "꪿ꪮꪣ"
      ],
      [
        "ꪬ",
        "꪿ꪱꪣ"
      ],
      [
        "ꪭ",
        "꫁"
      ],
      [
        "ꪭ",
        "ꪺꪙ"
      ],
      [
        "ꪭ",
        "ꪮꪥ"
      ],
      [
        "ꪭ",
        "ꪸ꫁"
      ],
      [
        "ꪭ",
        "ꪸꪫ"
      ],
      [
        "ꪭ",
        "꫁ꪮꪀ"
      ],
      [
        "ꪭ",
        "ꪫꪱ"
      ],
      [
        "ꪭ",
        "ꪳ꫁"
      ],
      [
        "ꪮ",
        "ꪾ"
      ],
      [
        "ꪮ",
        "ꪰꪀ"
      ],
      [
        "ꪮ",
        "ꪮꪒ"
      ],
      [
        "ꪮ",
        "ꪱꪣ"
      ],
      [
        "ꪮ",
        "ꪮꪥ"
      ],
      [
        "ꪮ",
        "ꪳ꪿"
      ],
      [
        "ꪮ",
        "ꪸ꫁ꪉ"
      ],
      [
        "ꪮ",
        "ꪲ꫁ꪫ"
      ],
      [
        "ꪮ",
        "ꪳ꪿ꪙ"
      ],
      [
        "ꪮ",
        "ꪺꪀ"
      ],
      [
        "ꪮ",
        "ꪳ꪿ꪉ"
      ],
      [
        "ꪮ",
        "ꪸ꪿ꪫ"
      ],
      [
        "ꪯ",
        "ꪱꪚ"
      ],
      [
        "ꪯ",
        "ꪱꪫ"
      ],
      [
        "ꪯ",
        "ꪱꪣ"
      ],
      [
        "ꪯ",
        "ꪴ꫁"
      ],
      [
        "ꪯ",
        "ꪲ꫁"
      ],
      [
        "ꪵ",
        "ꪐ꪿"
      ],
      [
        "ꪶ",
        "ꪏꪩ"
      ],
      [
        "ꪻ",
        "ꪙ"
      ],
      [
        "ꪼ",
        "ꪈ"
      ],
      [
        "ꪼ",
        "ꪊ"
      ],
      [
        "ꪶꪀ",
        "ꪥ"
      ],
      [
        "ꪹꪭ",
        "ꪀ"
      ],
      [
        "ꪹꪭ",
        "ꪉ"
      ],
      [
        "ꪹꪭ",
        "꫁ꪙ"
      ],
      [
        "ꪹꪄ",
        "꪿"
      ],
      [
        "ꪹꪄ",
        "ꪸꪣ"
      ],
      [
        "ꪹꪄ",
        "ꪷ꪿ꪙ"
      ],
      [
        "ꪵꪀ",
        "ꪒ"
      ],
      [
        "ꪹꪎ",
        "꫁ꪱ"
      ],
      [
        "ꪹꪎ",
        "ꪸ꪿"
      ],
      [
        "ꪶꪁ",
        "ꪩꪒ"
      ],
      [
        "ꪶꪎ",
        "꫁"
      ],
      [
        "ꪹꪀ",
        "ꪱ"
      ],
      [
        "ꪹꪀ",
        "꪿ꪀ"
      ],
      [
        "ꪹꪀ",
        "꫁ꪣ"
      ],
      [
        "ꪹꪀ",
        "ꪱ꫁"
      ],
      [
        "ꪹꪀ",
        "ꪷꪒ"
      ],
      [
        "ꪹꪀ",
        "ꪷꪚ"
      ],
      [
        "ꪹꪀ",
        "ꪷ꪿ꪙ"
      ],
      [
        "ꪹꪜ",
        "ꪉ"
      ],
      [
        "ꪹꪜ",
        "ꪸ꪿ꪉ"
      ],
      [
        "ꪹꪜ",
        "ꪷ꪿ꪙ"
      ],
      [
        "ꪹꪜ",
        "ꪷꪀ"
      ],
      [
        "ꪵꪄ",
        "꫁"
      ],
      [
        "ꪹꪋ",
        "ꪙ"
      ],
      [
        "ꪶꪩ",
        "ꪚ"
      ],
      [
        "ꪹꪣ",
        "ꪀ"
      ],
      [
        "ꪹꪣ",
        "ꪸꪙ"
      ],
      [
        "ꪹꪣ",
        "꪿ꪥ"
      ],
      [
        "ꪹꪣ",
        "ꪷꪥ"
      ],
      [
        "ꪹꪨ",
        "ꪒ"
      ],
      [
        "ꪵꪣ",
        "꫁ꪉ"
      ],
      [
        "ꪵꪣ",
        "꫁ꪀ"
      ],
      [
        "ꪹꪮ",
        "꫁ꪉ"
      ],
      [
        "ꪹꪮ",
        "ꪷ꫁ꪙ"
      ],
      [
        "ꪹꪥ",
        "꫁ꪙ"
      ],
      [
        "ꪹꪩ",
        "꪿ꪙ"
      ],
      [
        "ꪹꪩ",
        "ꪸ꪿"
      ],
      [
        "ꪶꪚ",
        "ꪀ"
      ],
      [
        "ꪶꪚ",
        "ꪚ"
      ],
      [
        "ꪶꪚ",
        "ꪨꪚ"
      ],
      [
        "ꪣꪳ",
        "ꪉ"
      ],
      [
        "ꪵꪭ",
        "꫁ꪙ"
      ],
      [
        "ꪵꪭ",
        "꪿ꪣ"
      ],
      [
        "ꪹꪔ",
        "ꪱ꪿"
      ],
      [
        "ꪹꪔ",
        "ꪷ꪿ꪉ"
      ],
      [
        "ꪹꪔ",
        "ꪸ꪿"
      ],
      [
        "ꪬꪺ",
        "ꪥ"
      ],
      [
        "ꪹꪕ",
        "ꪷ"
      ],
      [
        "ꪵꪎ",
        "꫁ꪫ"
      ],
      [
        "ꪵꪎ",
        "꪿ꪫ"
      ],
      [
        "ꪜꪲ",
        "꪿ꪀ"
      ],
      [
        "ꪵꪒ",
        "ꪀ"
      ],
      [
        "ꪶꪕ",
        "ꪉ"
      ],
      [
        "ꪶꪕ",
        "꫁ꪙ"
      ],
      [
        "ꪶꪕ",
        "꫁ꪉ"
      ],
      [
        "ꪵꪩ",
        "ꪀ"
      ],
      [
        "ꪶꪄ",
        "꪿ꪙ"
      ],
      [
        "ꪹꪬ",
        "ꪉ"
      ],
      [
        "ꪹꪬ",
        "ꪱ꫁"
      ],
      [
        "ꪵꪜ",
        "ꪒ"
      ],
      [
        "ꪵꪜ",
        "꪿ꪣ"
      ],
      [
        "ꪵꪔ",
        "ꪙ"
      ],
      [
        "ꪵꪔ",
        "꫁ꪉ"
      ],
      [
        "ꪹꪠ",
        "ꪉ"
      ],
      [
        "ꪹꪠ",
        "ꪸꪒ"
      ],
      [
        "ꪹꪠ",
        "ꪷ꪿ꪙ"
      ],
      [
        "ꪹꪠ",
        "ꪷ꫁ꪉ"
      ],
      [
        "ꪹꪏ",
        "ꪱ"
      ],
      [
        "ꪼꪀ",
        "꫁"
      ],
      [
        "ꪼꪀ",
        "ꪚ꪿"
      ],
      [
        "ꪹꪊ",
        "ꪸꪒ"
      ],
      [
        "ꪹꪊ",
        "ꪷꪚ"
      ],
      [
        "ꪹꪊ",
        "ꪷ꪿ꪙ"
      ],
      [
        "ꪵꪠ",
        "ꪀ"
      ],
      [
        "ꪹꪫ",
        "ꪱ꫁"
      ],
      [
        "ꪹꪉ",
        "ꪀ"
      ],
      [
        "ꪹꪙ",
        "ꪸꪀ"
      ],
      [
        "ꪹꪝ",
        "ꪱ"
      ],
      [
        "ꪹꪝ",
        "꪿ꪙ"
      ],
      [
        "ꪹꪝ",
        "ꪱ꪿"
      ],
      [
        "ꪹꪝ",
        "ꪩꪱ"
      ],
      [
        "ꪻꪎ",
        "꫁"
      ],
      [
        "ꪶꪜ",
        "꪿ꪙ"
      ],
      [
        "ꪵꪝ",
        "ꪒ"
      ],
      [
        "ꪵꪝ",
        "꫁"
      ],
      [
        "ꪵꪬ",
        "ꪚ"
      ],
      [
        "ꪵꪬ",
        "꪿"
      ],
      [
        "ꪁꪩ",
        "ꪰ꪿ꪉ"
      ],
      [
        "ꪁꪩ",
        "ꪳꪒ"
      ],
      [
        "ꪶꪮ",
        "꪿ꪀ"
      ],
      [
        "ꪹꪢ",
        "ꪱ꫁"
      ],
      [
        "ꪹꪅ",
        "ꪸ꫁ꪀ"
      ],
      [
        "ꪶꪣ",
        "꫁ꪀ"
      ],
      [
        "ꪵꪏ",
        "ꪣ"
      ],
      [
        "ꪶꪊ",
        "ꪀ"
      ],
      [
        "ꪶꪊ",
        "꪿ꪙ"
      ],
      [
        "ꪹꪘ",
        "ꪀ"
      ],
      [
        "ꪹꪘ",
        "ꪱ꪿"
      ],
      [
        "ꪶꪨ",
        "꫁"
      ],
      [
        "ꪶꪨ",
        "꪿ꪀ"
      ],
      [
        "ꪹꪛ",
        "ꪷ"
      ],
      [
        "ꪹꪡ",
        "ꪙ"
      ],
      [
        "ꪹꪡ",
        "ꪷꪙ"
      ],
      [
        "ꪶꪝ",
        "ꪚ"
      ],
      [
        "ꪶꪝ",
        "꫁ꪙ"
      ],
      [
        "ꪹꪒ",
        "꪿ꪉ"
      ],
      [
        "ꪵꪙ",
        "꪿ꪣ"
      ],
      [
        "ꪵꪋ",
        "ꪚ"
      ],
      [
        "ꪵꪋ",
        "ꪣ"
      ],
      [
        "ꪵꪋ",
        "꫁ꪙ"
      ],
      [
        "ꪝꪴ",
        "꫁ꪀ"
      ],
      [
        "ꪵꪫ",
        "ꪫ"
      ],
      [
        "ꪵꪫ",
        "꫁"
      ],
      [
        "ꪶꪋ",
        "꫁ꪉ"
      ],
      [
        "ꪕꪳ",
        "꫁ꪀ"
      ],
      [
        "ꪵꪯ",
        "ꪣ"
      ],
      [
        "ꪵꪯ",
        "ꪫ"
      ],
      [
        "ꪵꪯ",
        "ꪭ"
      ],
      [
        "ꪶꪖ",
        "꫁ꪉ"
      ],
      [
        "ꪶꪛ",
        "ꪩꪚ"
      ],
      [
        "ꪵꪨ",
        "꪿"
      ],
      [
        "ꪵꪘ",
        "ꪉ"
      ],
      [
        "ꪵꪘ",
        "꪿"
      ],
      [
        "ꪵꪘ",
        "꫁ꪉ"
      ],
      [
        "ꪶꪥ",
        "ꪙ"
      ],
      [
        "ꪶꪉ",
        "꫁ꪣ"
      ],
      [
        "ꪀꪤ",
        "ꪱꪚ"
      ],
      [
        "ꪀꪤ",
        "꪿ꪱꪀ"
      ],
      [
        "ꪵꪉ",
        "꫁ꪙ"
      ],
      [
        "ꪹꪐ",
        "ꪉ"
      ],
      [
        "ꪎꪴ꪿",
        "ꪥ"
      ],
      [
        "ꪶꪅ",
        "꪿"
      ],
      [
        "ꪶꪑ",
        "ꪣ"
      ],
      [
        "ꪹꪑ",
        "ꪥ"
      ],
      [
        "ꪹꪑ",
        "꫁"
      ],
      [
        "ꪁꪴ",
        "꫁ꪙ"
      ],
      [
        "ꪼꪖ",
        "꪿"
      ],
      [
        "ꪀꪨ",
        "꫁ꪮꪥ"
      ],
      [
        "ꪀꪨ",
        "ꪺꪙ"
      ],
      [
        "ꪮꪲ꪿",
        "ꪣ"
      ],
      [
        "ꪼꪚ",
        "꪿"
      ],
      [
        "ꪹꪁꪸ",
        "ꪩ꫁"
      ],
      [
        "ꪛꪩ",
        "ꪴꪚ"
      ],
      [
        "ꪛꪩ",
        "꫁ꪮꪀ"
      ],
      [
        "ꪉꪺ",
        "ꪣ"
      ],
      [
        "ꪵꪤ",
        "ꪉ"
      ],
      [
        "ꪵꪁꪫ",
        "ꪥ"
      ],
      [
        "ꪼꪠ",
        "꫁"
      ],
      [
        "ꪶꪓ",
        "꫁ꪀ"
      ],
      [
        "ꪶꪓ",
        "꫁ꪥ"
      ],
      [
        "ꪀꪔ",
        "ꪴ꪿ꪙ"
      ],
      [
        "ꪵꪗ",
        "꫁"
      ],
      [
        "ꪵꪏꪩ",
        "ꪚ"
      ],
      [
        "ꪶꪐ",
        "꪿ꪀ"
      ],
      [
        "ꪁꪣ",
        "ꪴ꫁ꪣ"
      ],
      [
        "ꪝꪙ",
        "ꪲꪉ"
      ],
      [
        "ꪯꪥ",
        "ꪮꪒ"
      ],
      [
        "ꪵꪑ",
        "ꪉ"
      ],
      [
        "ꪹꪛꪸ",
        "ꪭ꫁"
      ],
      [
        "ꪀꪺ",
        "ꪣ"
      ],
      [
        "ꪔꪘ",
        "꪿ꪮꪥ"
      ],
      [
        "ꪵꪛ",
        "ꪀ"
      ],
      [
        "ꪶꪏꪣ",
        "꫁ꪙ"
      ],
      [
        "k",
        "ả"
      ],
      [
        "ꪀ",
        "ꪰꪀ"
      ],
      [
        "ꪀ",
        "ꪴꪙ"
      ],
      [
        "ꪀ",
        "ꪳ꪿ꪙ"
      ],
      [
        "ꪀ",
        "ꪴ꫁ꪥ"
      ],
      [
        "ꪀ",
        "꪿ꪮꪀ"
      ],
      [
        "ꪁ",
        "ꪳ"
      ],
      [
        "ꪁ",
        "ꪱꪣ"
      ],
      [
        "ꪁ",
        "꪿ꪽ"
      ],
      [
        "ꪁ",
        "ꪴ꫁ꪣ"
      ],
      [
        "ꪁ",
        "ꪲ꫁ꪫ"
      ],
      [
        "ꪁ",
        "꪿ꪺꪉ"
      ],
      [
        "ꪁ",
        "ꪲꪀ"
      ],
      [
        "ꪁ",
        "꪿ꪫꪱꪉ"
      ],
      [
        "ꪄ",
        "ꪨ"
      ],
      [
        "ꪄ",
        "ꪴ"
      ],
      [
        "ꪄ",
        "ꪮꪀ"
      ],
      [
        "ꪄ",
        "ꪰꪉ"
      ],
      [
        "ꪄ",
        "ꪱꪣ"
      ],
      [
        "ꪄ",
        "ꪴꪒ"
      ],
      [
        "ꪄ",
        "ꪲꪉ"
      ],
      [
        "ꪄ",
        "ꪺꪀ"
      ],
      [
        "ꪄ",
        "ꪲ꪿ꪫ"
      ],
      [
        "ꪄ",
        "ꪲꪫ"
      ],
      [
        "ꪄ",
        "꪿ꪫꪱ"
      ],
      [
        "ꪄ",
        "꫁ꪫꪱꪉ"
      ],
      [
        "ꪅ",
        "ꪥ"
      ],
      [
        "ꪅ",
        "ꪾ꫁"
      ],
      [
        "ꪅ",
        "ꪷ꫁"
      ],
      [
        "ꪅ",
        "ꪺꪙ"
      ],
      [
        "ꪅ",
        "ꪴꪣ"
      ],
      [
        "ꪅ",
        "ꪴ꫁ꪣ"
      ],
      [
        "ꪅ",
        "ꪴ꪿ꪣ"
      ],
      [
        "ꪅ",
        "ꪳ꫁ꪣ"
      ],
      [
        "ꪈ",
        "ꪾ"
      ],
      [
        "ꪈ",
        "꫁ꪮꪉ"
      ],
      [
        "ꪉ",
        "ꪮꪉ"
      ],
      [
        "ꪉ",
        "꫁ꪀ"
      ],
      [
        "ꪉ",
        "ꪱꪣ"
      ],
      [
        "ꪉ",
        "꫁ꪱꪙ"
      ],
      [
        "ꪉ",
        "ꪮꪚ"
      ],
      [
        "ꪉ",
[...]
